<unk>	0
<s>	0
</s>	0
.	-3.16199
s	-3.4423
▁I	-3.75563
▁the	-3.95592
,	-4.0233
'	-4.06508
▁a	-4.17491
▁to	-4.21496
t	-4.31571
▁	-4.32775
▁#	-4.44596
▁and	-4.5718
▁you	-4.57556
▁it	-4.62154
▁is	-4.70652
▁that	-4.77952
▁of	-4.79438
’	-4.81532
N	-4.86915
▁in	-4.95223
!	-4.99873
AME	-5.00043
▁[	-5.00083
▁for	-5.03916
m	-5.12135
]	-5.14376
ing	-5.17273
?	-5.21205
▁this	-5.23225
▁my	-5.31882
▁was	-5.42638
ed	-5.42827
▁be	-5.43419
d	-5.44614
▁on	-5.51298
▁me	-5.59493
▁with	-5.61068
▁but	-5.62709
▁so	-5.63475
▁have	-5.64689
▁like	-5.64757
▁not	-5.65387
▁are	-5.69364
▁just	-5.70389
▁@	-5.70551
re	-5.71784
▁can	-5.87039
▁your	-5.89134
▁they	-5.91496
▁he	-5.93393
...	-6.03065
n	-6.04143
y	-6.04854
▁It	-6.08585
ly	-6.09804
▁about	-6.12556
▁at	-6.12877
▁all	-6.14484
▁don	-6.15487
▁You	-6.20037
▁get	-6.21038
▁what	-6.22651
▁up	-6.22826
▁do	-6.23021
-	-6.23471
▁one	-6.23581
▁out	-6.24601
▁The	-6.25454
▁we	-6.2618
▁if	-6.27586
▁That	-6.27854
▁love	-6.29398
▁people	-6.31422
▁as	-6.32738
▁would	-6.33838
▁i	-6.33947
ve	-6.35751
er	-6.37399
▁from	-6.37802
▁an	-6.39964
▁know	-6.40689
▁no	-6.45439
▁This	-6.4719
▁or	-6.48369
▁think	-6.48765
e	-6.49795
▁good	-6.49929
▁when	-6.50179
▁really	-6.51165
r	-6.525
▁too	-6.54255
▁will	-6.54298
▁more	-6.54488
▁how	-6.54765
▁her	-6.55654
ll	-6.57415
▁there	-6.57588
▁him	-6.5869
▁time	-6.6205
▁she	-6.63994
▁his	-6.64539
▁see	-6.65413
▁them	-6.66439
▁has	-6.68976
▁now	-6.69232
▁A	-6.7447
▁even	-6.75694
▁some	-6.75767
▁who	-6.7831
▁had	-6.78406
al	-6.80439
▁by	-6.81377
▁still	-6.81566
▁He	-6.85043
▁"	-6.85305
▁want	-6.85948
▁go	-6.8603
▁because	-6.87649
▁much	-6.88898
▁been	-6.89112
▁got	-6.90184
▁only	-6.90283
c	-6.90834
a	-6.91162
▁their	-6.92096
S	-6.93858
▁What	-6.95148
▁right	-6.95851
/	-6.96402
▁than	-6.96955
▁make	-6.97455
▁back	-6.97961
I	-6.98424
▁—	-6.98492
▁S	-6.99902
:	-7.00052
▁way	-7.00842
▁here	-7.01638
▁being	-7.01762
p	-7.02851
▁never	-7.03615
"	-7.04292
es	-7.04869
in	-7.05249
▁feel	-7.07035
▁over	-7.07578
▁Thanks	-7.07779
▁were	-7.09261
▁bad	-7.09813
i	-7.1018
▁going	-7.11596
▁man	-7.11718
▁why	-7.11741
▁No	-7.11765
▁If	-7.12053
▁lol	-7.12642
▁didn	-7.13431
▁then	-7.13612
or	-7.13968
o	-7.14055
▁should	-7.14806
▁did	-7.15552
▁“	-7.16588
▁day	-7.1676
▁My	-7.17503
▁Thank	-7.17709
▁Oh	-7.1808
h	-7.18323
A	-7.19086
g	-7.19734
▁thing	-7.19831
▁need	-7.19879
▁could	-7.20082
▁someone	-7.20543
▁hope	-7.2066
▁They	-7.22373
▁very	-7.23275
D	-7.24386
▁So	-7.24847
▁off	-7.25377
▁great	-7.25737
▁say	-7.26422
▁better	-7.26459
▁We	-7.26777
;	-7.28013
▁But	-7.29682
▁other	-7.30426
b	-7.30645
▁any	-7.31424
▁work	-7.32109
▁And	-7.32127
)	-7.32933
▁(	-7.33069
*	-7.33206
▁B	-7.33318
T	-7.33464
▁game	-7.35069
▁am	-7.35704
C	-7.35772
▁actually	-7.35838
▁down	-7.35895
▁thought	-7.36077
▁sure	-7.36313
▁something	-7.36617
_	-7.38345
▁into	-7.38431
▁doesn	-7.38544
▁well	-7.38577
▁always	-7.38815
▁life	-7.39058
▁our	-7.39164
▁same	-7.39953
k	-7.41562
▁though	-7.41738
▁after	-7.42119
▁year	-7.42294
▁pretty	-7.42583
▁look	-7.43176
▁best	-7.43469
B	-7.43689
▁first	-7.43942
le	-7.43984
▁*	-7.44287
it	-7.44582
th	-7.44655
u	-7.46435
▁those	-7.46681
!!	-7.4673
▁>	-7.47042
l	-7.47796
▁guy	-7.48467
▁Yeah	-7.48622
▁2	-7.49155
▁She	-7.49438
▁Not	-7.50195
▁before	-7.50202
”	-7.5031
▁also	-7.50383
P	-7.50588
▁T	-7.50594
▁P	-7.50616
▁years	-7.52966
▁Just	-7.52983
▁C	-7.53094
▁-	-7.53365
▁us	-7.54928
▁ever	-7.54994
▁makes	-7.54998
▁these	-7.55175
an	-7.55575
▁mean	-7.56231
▁made	-7.56369
▁said	-7.56907
f	-7.56989
▁hate	-7.57997
▁things	-7.58252
▁most	-7.58473
▁take	-7.59183
en	-7.59248
▁new	-7.60119
ers	-7.60457
▁last	-7.61471
▁happy	-7.61977
ur	-7.6208
▁post	-7.62447
▁sorry	-7.62477
▁hard	-7.6368
w	-7.65183
▁find	-7.67524
▁F	-7.67775
▁un	-7.67833
ri	-7.68026
].	-7.68375
▁3	-7.6853
▁re	-7.68569
E	-7.69471
▁many	-7.69596
▁old	-7.70545
▁getting	-7.71133
▁isn	-7.72276
▁:)	-7.72339
▁where	-7.72403
▁let	-7.7248
▁again	-7.73198
▁shit	-7.73495
O	-7.73806
▁point	-7.743
▁person	-7.74648
▁lot	-7.74821
▁Good	-7.7527
▁wrong	-7.75715
▁looks	-7.75916
▁doing	-7.7621
ar	-7.76316
▁does	-7.76318
▁Don	-7.76379
▁keep	-7.76779
▁fun	-7.76912
▁thanks	-7.77145
▁long	-7.77719
v	-7.77931
\	-7.78427
▁probably	-7.78539
▁play	-7.78722
M	-7.79362
▁How	-7.79382
▁help	-7.79482
▁sub	-7.80018
on	-7.80365
L	-7.80873
▁home	-7.8123
▁every	-7.81934
ic	-7.8208
▁anything	-7.82172
▁little	-7.82956
▁real	-7.83086
▁There	-7.83521
▁D	-7.8408
▁give	-7.84311
▁believe	-7.84741
▁everyone	-7.85227
G	-7.85809
▁live	-7.85948
▁show	-7.86099
▁wish	-7.86394
F	-7.86513
R	-7.866
▁Wow	-7.86748
▁use	-7.87245
ation	-7.87359
▁Why	-7.87819
▁b	-7.87953
ra	-7.88005
▁Well	-7.89146
W	-7.90084
▁stop	-7.90265
ting	-7.90482
▁least	-7.90705
ce	-7.91402
▁M	-7.91485
amp	-7.91889
▁put	-7.92963
▁comment	-7.93041
▁around	-7.93851
ion	-7.94092
▁amazing	-7.943
],	-7.94788
▁u	-7.94922
▁try	-7.95166
▁Can	-7.95376
▁while	-7.95689
▁read	-7.95692
us	-7.95763
▁tell	-7.95975
▁Lol	-7.96643
me	-7.96893
▁&	-7.9728
▁fucking	-7.97329
▁nice	-7.97408
▁E	-7.97502
▁face	-7.97706
▁head	-7.9819
▁sad	-7.98325
il	-7.98644
▁end	-7.98965
▁r	-7.98999
at	-7.99009
▁won	-7.99165
▁through	-7.99422
▁come	-7.99524
▁away	-8.00318
▁kind	-8.008
K	-8.00904
est	-8.01111
▁glad	-8.01529
ro	-8.01869
▁part	-8.01982
▁having	-8.02129
▁trying	-8.02131
▁next	-8.02431
▁such	-8.02448
▁understand	-8.02467
▁job	-8.02773
▁nothing	-8.03046
able	-8.03523
▁cool	-8.03972
▁world	-8.04098
▁might	-8.04169
▁enough	-8.04271
▁already	-8.04605
▁start	-8.0483
el	-8.04985
▁since	-8.05204
▁two	-8.05205
ity	-8.0524
▁today	-8.05261
▁thank	-8.05491
▁seen	-8.05546
▁de	-8.06057
▁dude	-8.07416
!!!	-8.07906
se	-8.08369
▁In	-8.08758
▁friend	-8.0891
▁own	-8.09356
is	-8.09439
▁both	-8.09537
▁fuck	-8.10126
ent	-8.10502
▁without	-8.10557
gonna	-8.10912
▁weird	-8.10983
▁W	-8.11275
z	-8.11334
▁remember	-8.11644
▁team	-8.1168
ta	-8.11819
▁heart	-8.12117
▁Yes	-8.12214
▁1	-8.12529
▁idea	-8.13089
▁anyone	-8.13287
▁5	-8.13295
2	-8.13626
▁few	-8.13678
▁yourself	-8.13695
▁guess	-8.13767
▁watch	-8.13793
li	-8.13914
▁else	-8.13999
▁G	-8.14632
—	-8.14741
▁hear	-8.14827
ul	-8.14889
ment	-8.15001
▁high	-8.15311
▁which	-8.15427
▁far	-8.15574
▁care	-8.15711
▁guys	-8.15714
▁bit	-8.15782
▁days	-8.15972
▁another	-8.15983
▁agree	-8.16068
▁car	-8.16132
▁left	-8.1735
▁luck	-8.17592
▁place	-8.17827
te	-8.18042
▁call	-8.18052
▁until	-8.18894
am	-8.19151
▁yet	-8.19369
▁turn	-8.1974
▁big	-8.20034
x	-8.20086
▁K	-8.20223
▁Do	-8.20248
▁saying	-8.20325
▁must	-8.20373
Y	-8.20443
▁done	-8.20582
ch	-8.20805
ive	-8.20965
▁money	-8.21061
j	-8.21226
and	-8.21696
no	-8.22292
▁video	-8.22345
▁Love	-8.22526
▁everything	-8.2259
▁damn	-8.22962
ter	-8.22972
▁When	-8.22972
▁name	-8.23226
▁change	-8.23301
▁awesome	-8.2333
▁true	-8.23352
▁against	-8.2337
▁kids	-8.23419
▁reason	-8.23498
▁wasn	-8.23876
▁mind	-8.24372
▁season	-8.24455
the	-8.24483
less	-8.24622
▁problem	-8.24745
ist	-8.24888
▁Maybe	-8.25169
▁Sorry	-8.25218
▁myself	-8.25231
▁friends	-8.25477
▁talk	-8.25934
id	-8.26043
▁used	-8.26333
▁funny	-8.27331
▁Now	-8.27389
et	-8.27538
ie	-8.27692
U	-8.28203
▁went	-8.28428
▁R	-8.2853
▁p	-8.28561
▁once	-8.28837
▁seems	-8.28959
▁week	-8.29148
▁im	-8.29345
▁wait	-8.29795
▁joke	-8.30339
▁looking	-8.30393
▁4	-8.30628
▁favorite	-8.30646
▁girl	-8.30928
lo	-8.3106
co	-8.32063
ry	-8.32451
▁As	-8.32468
ies	-8.32616
1	-8.32797
ness	-8.32833
▁ago	-8.32928
ma	-8.33036
▁L	-8.34234
▁stupid	-8.34332
▁wouldn	-8.34798
▁night	-8.35022
▁school	-8.35298
up	-8.359
▁c	-8.35928
▁making	-8.36023
3	-8.36504
um	-8.36581
▁O	-8.36732
▁definitely	-8.36872
4	-8.37127
▁yeah	-8.37256
▁may	-8.37409
▁whole	-8.37636
ate	-8.38134
▁side	-8.38159
▁different	-8.38215
ha	-8.38318
▁happened	-8.385
la	-8.38834
ir	-8.39023
▁/	-8.39259
▁heard	-8.39341
▁kid	-8.39381
▁worse	-8.39915
▁Damn	-8.39915
▁sounds	-8.40105
▁For	-8.40666
▁:	-8.40767
▁story	-8.40898
▁stuff	-8.41251
▁lost	-8.41664
na	-8.4216
▁under	-8.42355
H	-8.42454
▁haha	-8.42545
▁literally	-8.4261
▁saw	-8.42628
▁aren	-8.42989
▁Your	-8.43002
▁dont	-8.43417
▁hell	-8.43436
▁All	-8.43505
▁enjoy	-8.4366
▁ok	-8.43942
▁second	-8.43989
man	-8.4522
▁either	-8.45358
▁terrible	-8.45425
as	-8.45645
▁free	-8.4566
un	-8.46057
▁hand	-8.46106
▁beautiful	-8.46405
▁Go	-8.47101
▁fact	-8.47322
▁maybe	-8.47366
ne	-8.47588
▁H	-8.47685
▁con	-8.47737
▁Because	-8.47745
▁w	-8.47757
to	-8.47863
▁:(	-8.48206
5	-8.48301
ia	-8.48341
▁times	-8.48386
▁sense	-8.4873
▁talking	-8.48908
▁super	-8.49229
▁win	-8.49321
all	-8.49479
▁family	-8.49798
▁20	-8.49837
▁interesting	-8.49881
▁support	-8.50129
▁Me	-8.50331
▁gets	-8.50445
▁almost	-8.50623
▁pick	-8.50718
▁leave	-8.51115
▁women	-8.51184
▁run	-8.51711
▁feeling	-8.51738
▁yes	-8.52034
▁10	-8.5228
▁worst	-8.52665
▁U	-8.52952
ful	-8.53767
7	-8.54083
▁fine	-8.54164
....	-8.54216
age	-8.54261
▁close	-8.54269
▁Be	-8.54339
▁full	-8.54371
nd	-8.55258
▁less	-8.55388
out	-8.55495
▁Are	-8.55567
▁fan	-8.55644
▁At	-8.55856
▁watching	-8.56527
▁f	-8.56675
▁Look	-8.56709
▁6	-8.57726
▁please	-8.58279
▁question	-8.58287
▁hit	-8.58375
▁mom	-8.58381
V	-8.58388
▁playing	-8.58476
▁oh	-8.58484
▁news	-8.58536
ig	-8.58569
▁Let	-8.58769
▁miss	-8.58962
oo	-8.58962
▁thinking	-8.59169
ism	-8.59213
ish	-8.59218
▁...	-8.59315
▁came	-8.59323
be	-8.60117
▁Or	-8.60256
▁woman	-8.60424
pe	-8.60853
▁Happy	-8.61045
▁THE	-8.6105
ty	-8.61071
▁Also	-8.61517
▁pay	-8.61732
▁exactly	-8.6213
▁needs	-8.6252
▁Please	-8.62616
▁coming	-8.63088
▁Ah	-8.63171
▁kill	-8.6393
▁started	-8.63962
ian	-8.64353
▁happen	-8.6462
▁wanted	-8.64633
▁tho	-8.64811
▁found	-8.64823
▁co	-8.64851
▁awful	-8.64934
▁matter	-8.65058
▁move	-8.6509
▁Re	-8.65289
one	-8.65932
▁become	-8.66057
▁To	-8.66176
ol	-8.66253
J	-8.66356
taking	-8.66383
▁seem	-8.66685
mo	-8.67009
▁men	-8.67046
he	-8.67399
▁took	-8.67494
#	-8.67577
▁eyes	-8.67646
▁crazy	-8.67805
▁One	-8.67945
▁Haha	-8.68074
▁V	-8.68348
▁People	-8.68374
▁haven	-8.68436
▁couldn	-8.68529
ine	-8.68575
po	-8.68613
▁stay	-8.68731
▁rest	-8.68786
ver	-8.68823
▁l	-8.69441
▁half	-8.6958
▁tried	-8.69611
ure	-8.6963
▁d	-8.69654
▁surprised	-8.69654
▁ex	-8.69693
The	-8.69796
▁told	-8.70033
▁child	-8.70192
▁called	-8.70232
▁top	-8.70235
go	-8.70342
▁house	-8.70419
▁😂	-8.70529
▁die	-8.70564
ow	-8.70577
6	-8.70595
▁Great	-8.70743
▁OP	-8.71156
our	-8.71243
▁Man	-8.71703
▁together	-8.71898
▁ask	-8.71936
▁absolutely	-8.71974
▁soon	-8.72034
im	-8.72273
▁Have	-8.72367
▁moment	-8.72408
▁god	-8.72418
▁dis	-8.72529
ton	-8.72646
▁deal	-8.72881
▁laugh	-8.72923
▁7	-8.72975
▁low	-8.74039
▁open	-8.7414
▁cute	-8.74449
▁check	-8.75172
▁wonder	-8.75189
▁sex	-8.75375
▁word	-8.75858
▁dog	-8.75865
▁shot	-8.76259
▁imagine	-8.76466
ut	-8.76488
▁Even	-8.76884
▁self	-8.77167
▁eat	-8.77256
▁okay	-8.77542
▁words	-8.77562
▁break	-8.77849
▁bro	-8.78018
▁Who	-8.78254
▁case	-8.78328
▁alone	-8.7834
▁worth	-8.78353
ad	-8.78521
nt	-8.78559
ho	-8.78591
▁state	-8.78666
▁rather	-8.78821
▁past	-8.78871
▁honestly	-8.78924
▁appreciate	-8.79222
ick	-8.79402
▁gone	-8.79423
▁between	-8.79474
ge	-8.7971
ah	-8.80272
▁movie	-8.80365
▁lose	-8.80567
▁goes	-8.80774
▁thread	-8.80798
▁felt	-8.80801
8	-8.80937
▁di	-8.81066
▁others	-8.81112
▁worry	-8.8117
▁hurt	-8.81201
de	-8.81249
ac	-8.81464
▁answer	-8.81589
▁Hope	-8.82146
▁experience	-8.82171
▁able	-8.82241
▁Like	-8.82244
ee	-8.8251
ang	-8.82656
day	-8.82668
▁New	-8.82724
▁means	-8.82755
▁Glad	-8.82806
▁\	-8.83847
▁De	-8.8392
▁law	-8.84173
▁instead	-8.84179
▁horrible	-8.84674
▁parents	-8.84676
️	-8.84859
▁lmao	-8.84913
▁water	-8.85061
ance	-8.8509
▁Did	-8.85092
we	-8.85189
per	-8.85382
▁wanna	-8.85555
▁poor	-8.85562
▁phone	-8.85802
vi	-8.85877
▁pain	-8.86157
▁strong	-8.86246
ect	-8.864
▁games	-8.8654
▁comments	-8.86571
▁Get	-8.86653
do	-8.8683
▁chance	-8.86959
▁country	-8.86974
▁sweet	-8.87068
▁buy	-8.87096
▁cause	-8.87313
▁pro	-8.87565
▁situation	-8.87668
▁line	-8.87796
▁boy	-8.88584
▁fear	-8.88643
ot	-8.88948
▁sound	-8.89052
▁using	-8.89177
ff	-8.89231
▁food	-8.8932
.”	-8.89436
▁Ho	-8.89626
bo	-8.89686
ling	-8.89808
da	-8.8982
▁near	-8.89835
▁each	-8.89838
tic	-8.89844
▁quite	-8.89881
▁smile	-8.90068
ther	-8.90168
▁realize	-8.90178
▁hot	-8.90206
▁sucks	-8.90273
▁th	-8.90329
▁Hey	-8.90362
ant	-8.90673
hi	-8.90691
▁J	-8.90723
ally	-8.90725
▁e	-8.90763
▁kinda	-8.90806
▁8	-8.90864
▁issue	-8.9106
▁entire	-8.91064
▁working	-8.91124
con	-8.91143
▁anymore	-8.91307
▁light	-8.91973
▁st	-8.92073
▁song	-8.92177
▁age	-8.92197
▁Then	-8.92481
▁comes	-8.92659
▁players	-8.92879
▁morning	-8.92894
▁baby	-8.92925
▁follow	-8.93026
▁sp	-8.9345
▁YOU	-8.936
▁completely	-8.93634
▁Some	-8.9384
0	-8.93946
▁pre	-8.94333
00	-8.94671
▁On	-8.9488
mon	-8.94948
▁per	-8.95123
▁dumb	-8.95147
les	-8.95353
my	-8.95577
bb	-8.95672
▁gave	-8.95902
▁control	-8.95918
happy	-8.95979
▁seeing	-8.96081
▁says	-8.96083
▁Co	-8.96261
▁ha	-8.96844
▁months	-8.97149
▁mo	-8.97251
▁account	-8.97378
▁future	-8.97509
ag	-8.97669
▁excited	-8.97677
▁mad	-8.97799
of	-8.97846
▁played	-8.98032
▁hair	-8.98186
▁advice	-8.98223
▁n	-8.98231
▁scared	-8.98461
ous	-8.98535
▁afraid	-8.98679
▁tonight	-8.98726
sad	-8.98753
ice	-8.98763
ain	-8.98799
▁po	-8.98837
▁sick	-8.98956
▁curious	-8.98958
line	-8.98999
▁reddit	-8.99082
ack	-8.99144
▁Was	-8.99237
ay	-8.99541
ni	-8.99593
▁Ha	-8.99683
▁knew	-8.99762
▁act	-9
▁looked	-9.00246
ep	-9.00249
ex	-9.00411
ng	-9.0042
▁late	-9.00482
▁wow	-9.00594
ba	-9.00668
ster	-9.00961
▁minutes	-9.01052
▁Very	-9.01378
ub	-9.01521
sh	-9.01553
qu	-9.01579
▁forget	-9.0166
ard	-9.02114
▁opinion	-9.02275
▁room	-9.0255
▁hilarious	-9.02922
▁government	-9.03024
▁feels	-9.03207
ite	-9.03399
▁small	-9.03683
▁loved	-9.03841
▁relationship	-9.03857
time	-9.03964
▁easy	-9.04018
▁later	-9.04054
ary	-9.04176
▁sometimes	-9.04315
▁Fuck	-9.04316
tion	-9.0438
▁hands	-9.04499
▁o	-9.04553
▁ya	-9.04613
▁couple	-9.04706
▁single	-9.04715
ci	-9.04814
▁serious	-9.05111
▁happens	-9.05238
▁learn	-9.05465
▁response	-9.05545
▁straight	-9.05545
▁short	-9.05546
▁brother	-9.05563
▁dead	-9.0573
9	-9.05761
rs	-9.0578
▁young	-9.0582
▁Po	-9.06382
▁article	-9.064
▁wife	-9.06406
▁link	-9.06408
▁hours	-9.06417
▁course	-9.06555
?!	-9.06587
▁month	-9.06651
▁black	-9.06727
▁class	-9.06799
▁death	-9.07419
**	-9.07427
▁music	-9.07663
lu	-9.07759
life	-9.07816
▁cut	-9.07871
ck	-9.0795
▁normal	-9.08
▁type	-9.08135
▁forgot	-9.08144
uch	-9.08229
▁anyway	-9.08486
▁fight	-9.08625
ip	-9.08811
▁goal	-9.08916
▁reading	-9.09013
▁Never	-9.09022
▁Nice	-9.09029
▁angry	-9.09046
▁children	-9.09087
▁safe	-9.09099
▁totally	-9.09101
ize	-9.09239
▁bring	-9.09364
▁body	-9.09388
▁stand	-9.09407
▁meant	-9.09453
▁anti	-9.09486
▁30	-9.09692
▁Omg	-9.09896
▁return	-9.10221
▁Ok	-9.10228
▁during	-9.10792
▁mother	-9.10803
▁Same	-9.10855
hose	-9.10913
▁posted	-9.10922
▁picture	-9.11174
▁dream	-9.11508
▁human	-9.11525
▁mine	-9.11565
ru	-9.11744
▁watched	-9.11951
way	-9.12038
ga	-9.12047
X	-9.12529
▁internet	-9.12596
▁truly	-9.12598
land	-9.12916
▁explain	-9.12936
▁beat	-9.13055
▁walk	-9.13068
▁fall	-9.13107
▁k	-9.13146
!!!!	-9.13199
▁clear	-9.13288
em	-9.13303
▁Un	-9.13341
for	-9.13485
▁police	-9.13514
▁living	-9.13606
▁wants	-9.13622
ight	-9.1368
ach	-9.13715
uck	-9.13735
▁US	-9.1382
not	-9.13906
anxiety	-9.14043
ab	-9.14171
▁sharing	-9.14442
▁fans	-9.14607
▁non	-9.14718
don	-9.14735
▁power	-9.14888
▁dad	-9.14932
]?	-9.15317
▁expect	-9.15356
▁effort	-9.15374
▁Honestly	-9.15374
▁fake	-9.15392
▁possible	-9.15429
▁huge	-9.15446
▁Really	-9.15451
cu	-9.1558
▁seriously	-9.15626
▁meme	-9.15779
ING	-9.15811
▁Y	-9.15854
▁episode	-9.15928
▁j	-9.16154
▁ti	-9.16241
▁Keep	-9.16318
▁cold	-9.16349
▁Where	-9.16358
▁outside	-9.16439
▁finally	-9.16452
▁9	-9.16554
▁white	-9.16566
op	-9.16603
ber	-9.16669
▁ta	-9.16701
▁missed	-9.17108
▁plan	-9.1727
▁Edit	-9.17271
▁history	-9.17272
▁upvote	-9.17315
▁TO	-9.17393
▁deserve	-9.17457
io	-9.17472
ner	-9.17766
▁order	-9.17943
▁level	-9.17996
▁sc	-9.18112
▁His	-9.18113
▁red	-9.18149
▁Still	-9.18241
▁With	-9.18342
so	-9.18407
che	-9.18519
▁service	-9.18587
▁set	-9.18957
▁loss	-9.19268
▁reply	-9.19294
▁public	-9.19315
ka	-9.19476
▁bar	-9.19808
▁war	-9.19958
▁cat	-9.19961
und	-9.19976
▁sleep	-9.20065
min	-9.20085
▁h	-9.20099
▁correct	-9.20114
▁group	-9.20186
▁brain	-9.20229
▁social	-9.20393
king	-9.20447
ph	-9.20473
▁perfect	-9.20522
ped	-9.20869
smile	-9.20874
you	-9.21004
10	-9.21197
▁sort	-9.21337
▁mess	-9.21554
▁date	-9.21866
fear	-9.2193
▁app	-9.2195
end	-9.22059
ence	-9.22123
▁ridiculous	-9.22173
▁tomorrow	-9.22175
▁often	-9.22235
▁works	-9.22277
▁blood	-9.22287
▁v	-9.22319
▁Sound	-9.22367
▁cr	-9.22491
▁dark	-9.2282
▁hold	-9.2298
ER	-9.23106
▁Watch	-9.23195
▁confused	-9.2326
pi	-9.23291
▁respect	-9.23299
gotta	-9.23305
anger	-9.23737
▁character	-9.23873
▁fair	-9.23987
▁Dude	-9.24228
▁disgusting	-9.24268
▁Lmao	-9.24482
ger	-9.24494
▁shouldn	-9.24515
▁test	-9.24595
▁g	-9.24839
▁fast	-9.25063
▁racist	-9.25234
▁behind	-9.25234
▁early	-9.25297
▁blame	-9.25312
▁Everyone	-9.25327
fe	-9.25349
▁front	-9.25436
ke	-9.25621
▁crying	-9.25679
]!	-9.25749
▁An	-9.25869
(	-9.25976
▁mate	-9.2606
▁pass	-9.26227
▁themselves	-9.26276
▁mistake	-9.26276
▁Ro	-9.263
▁Wait	-9.26321
ell	-9.2633
▁$	-9.26359
▁city	-9.26362
ated	-9.26533
di	-9.26677
▁anxiety	-9.26725
om	-9.26834
▁St	-9.26843
ny	-9.26885
▁drive	-9.27134
▁**	-9.27162
▁number	-9.27302
▁local	-9.27332
love	-9.27443
▁clearly	-9.27589
bs	-9.27628
wa	-9.27665
▁hour	-9.27689
ill	-9.28061
ical	-9.28211
▁gun	-9.28216
▁important	-9.28393
▁three	-9.28394
▁difference	-9.28394
▁hoping	-9.28403
▁giving	-9.285
▁Hi	-9.28561
son	-9.28582
RE	-9.28743
▁forward	-9.28853
▁door	-9.28986
bi	-9.29193
ea	-9.29349
▁Every	-9.29457
▁Most	-9.29501
▁lack	-9.29502
▁base	-9.29925
▁waiting	-9.29927
▁Didn	-9.29957
▁shame	-9.30438
▁sl	-9.30483
RELIGION	-9.30555
▁tbh	-9.30555
▁proud	-9.30555
▁argument	-9.30606
▁wonderful	-9.30725
▁15	-9.30822
der	-9.30973
q	-9.30994
ever	-9.31354
▁Would	-9.31376
▁player	-9.31423
▁book	-9.31449
▁Does	-9.31498
▁usually	-9.31734
▁especially	-9.31765
▁scene	-9.31795
▁spend	-9.31857
▁needed	-9.31971
▁ma	-9.32012
▁step	-9.32133
▁ho	-9.32383
▁asked	-9.32465
fully	-9.3258
cy	-9.32769
red	-9.32923
▁birthday	-9.32927
▁share	-9.33005
gg	-9.33031
▁died	-9.33183
▁eye	-9.3322
ze	-9.33387
▁send	-9.33436
ass	-9.33702
▁drop	-9.3389
if	-9.33911
fuming	-9.33924
▁Stop	-9.33999
▁listen	-9.3405
▁grow	-9.34112
▁bed	-9.34142
▁drink	-9.34453
▁ready	-9.34832
▁health	-9.34881
▁Reddit	-9.35025
▁piece	-9.35025
▁Nah	-9.35063
▁doctor	-9.35089
ug	-9.35196
▁idiot	-9.3525
▁wall	-9.35266
tra	-9.3541
▁save	-9.35529
ating	-9.35654
terrible	-9.36009
▁attack	-9.3605
▁visit	-9.36176
▁ugly	-9.36178
▁shut	-9.36181
▁LOL	-9.36183
▁fat	-9.36187
ious	-9.36202
▁Right	-9.36206
▁sign	-9.36222
▁weeks	-9.36235
br	-9.36305
ake	-9.36597
AND	-9.36688
▁inside	-9.36792
gi	-9.36821
▁speak	-9.37023
▁actual	-9.37119
."	-9.37136
depression	-9.3719
▁count	-9.37225
▁mouth	-9.37337
▁cross	-9.37337
▁jump	-9.37348
▁Yep	-9.37387
▁takes	-9.37473
awful	-9.37662
▁throw	-9.37697
▁online	-9.37938
IN	-9.37955
▁La	-9.38293
ak	-9.38499
▁worried	-9.38513
▁yesterday	-9.38513
▁After	-9.38514
lic	-9.38641
ey	-9.38712
▁fire	-9.38728
%	-9.38788
▁Her	-9.38833
▁See	-9.39149
).	-9.39161
▁list	-9.39178
▁posts	-9.39234
lt	-9.39266
▁killed	-9.39442
blues	-9.39543
▁girls	-9.39612
▁smell	-9.39705
▁subreddit	-9.3971
▁taste	-9.3971
▁trash	-9.39716
fa	-9.39751
▁clean	-9.39768
▁media	-9.40067
▁remind	-9.4014
▁12	-9.40161
Only	-9.40438
▁cringe	-9.40717
▁deep	-9.40914
han	-9.4099
▁suck	-9.40993
▁system	-9.41031
▁welcome	-9.41047
▁Pa	-9.41665
+	-9.41887
act	-9.41893
▁God	-9.42029
▁trouble	-9.42129
mar	-9.42459
ade	-9.4273
.....	-9.42836
aw	-9.43088
▁area	-9.43118
terrorism	-9.43284
▁likely	-9.43316
▁doubt	-9.43368
▁option	-9.43373
▁Make	-9.43454
ue	-9.43464
▁amount	-9.43529
▁taken	-9.43616
▁cake	-9.43619
retty	-9.43647
▁truth	-9.43756
▁ended	-9.43985
▁la	-9.44133
▁figure	-9.44175
ized	-9.44501
nightmare	-9.44544
▁regret	-9.44613
▁trade	-9.44622
▁catch	-9.44689
▁Any	-9.4475
▁obviously	-9.44861
▁stick	-9.44895
▁star	-9.45053
pro	-9.45076
old	-9.45139
▁em	-9.45205
▁wear	-9.45206
sion	-9.45288
ise	-9.45502
▁touch	-9.45518
[	-9.45665
angry	-9.45687
bitter	-9.45852
▁running	-9.45902
▁tears	-9.45904
▁lead	-9.46225
ix	-9.46255
▁round	-9.46412
▁Ca	-9.46528
▁claim	-9.46562
▁talent	-9.46714
▁pull	-9.46716
▁warm	-9.46786
▁odd	-9.46932
ping	-9.4703
▁attention	-9.47161
▁similar	-9.47161
▁basically	-9.47166
musically	-9.47167
▁art	-9.47227
ring	-9.47332
▁noticed	-9.47528
▁=	-9.47534
▁issues	-9.47602
play	-9.4768
▁freak	-9.48016
▁party	-9.48185
ES	-9.4819
que	-9.4825
ship	-9.48289
▁points	-9.48306
▁mu	-9.48313
▁awkward	-9.48459
▁special	-9.48459
▁double	-9.4846
▁original	-9.48461
▁title	-9.48462
▁Z	-9.48463
ca	-9.48491
by	-9.48536
▁store	-9.48564
▁sit	-9.48626
▁liked	-9.48627
▁asking	-9.48677
▁whatever	-9.48699
ft	-9.48707
over	-9.48771
▁shows	-9.4879
▁fit	-9.48942
off	-9.48983
▁vote	-9.49125
▁vi	-9.49302
▁longer	-9.49404
tro	-9.49592
▁Con	-9.49668
▁offer	-9.49672
▁Of	-9.49698
Z	-9.49771
▁telling	-9.49773
▁Congrats	-9.49775
▁Probably	-9.49775
▁trust	-9.49776
▁NOT	-9.49827
work	-9.49916
▁SO	-9.49961
▁add	-9.50437
▁ones	-9.50505
▁calling	-9.50576
▁tip	-9.50929
▁community	-9.51108
▁text	-9.51109
quote	-9.51127
▁extra	-9.5113
▁skin	-9.51185
▁cost	-9.5123
ST	-9.51342
▁+	-9.51373
▁cry	-9.51393
▁business	-9.51426
▁Ma	-9.51642
▁Got	-9.51737
rage	-9.52006
▁view	-9.52131
▁due	-9.52154
va	-9.52164
??	-9.52285
▁train	-9.52311
▁eating	-9.52329
but	-9.52366
▁fr	-9.52416
▁Sometimes	-9.5246
▁common	-9.52465
Q	-9.52506
▁depression	-9.52643
▁ball	-9.5281
▁report	-9.52836
AR	-9.52951
▁fe	-9.53144
pr	-9.5329
side	-9.53488
▁given	-9.53741
▁y	-9.53773
den	-9.5382
▁disagree	-9.5383
▁husband	-9.5383
▁source	-9.53831
▁Hopefully	-9.53848
▁spot	-9.53857
▁feet	-9.53858
kept	-9.53862
optimism	-9.53874
▁gold	-9.53877
ME	-9.53944
▁positive	-9.54007
ear	-9.54059
▁soul	-9.54103
bl	-9.54124
AL	-9.54154
ong	-9.54241
▁protect	-9.54268
You	-9.54359
▁roll	-9.54537
let	-9.54619
▁troll	-9.54654
▁son	-9.54748
▁Sa	-9.54776
▁insult	-9.54821
▁honest	-9.55208
▁voice	-9.55219
▁space	-9.55219
▁Which	-9.55224
bu	-9.55265
ps	-9.55286
like	-9.55408
▁Year	-9.55412
▁value	-9.55418
▁Will	-9.55475
▁tired	-9.55557
▁May	-9.55576
▁Mo	-9.55593
▁tweet	-9.55607
os	-9.56237
!"	-9.56348
▁Too	-9.56351
▁quick	-9.56402
▁mental	-9.56408
▁card	-9.56483
▁laughing	-9.56526
▁Ba	-9.56626
▁simple	-9.56627
▁foot	-9.56634
▁America	-9.56646
▁himself	-9.56697
▁etc	-9.5672
nervous	-9.5672
▁college	-9.56732
sadness	-9.56759
???	-9.5676
▁creepy	-9.56923
▁Best	-9.57062
▁avoid	-9.57174
cing	-9.57329
▁Th	-9.57475
▁complain	-9.57479
▁exist	-9.57539
▁ruin	-9.57614
rd	-9.57761
▁match	-9.57966
▁en	-9.58005
▁THIS	-9.58056
▁record	-9.58056
▁losing	-9.58072
▁sister	-9.58077
▁rich	-9.58091
▁main	-9.58182
lin	-9.58393
▁interest	-9.58519
ox	-9.58523
ions	-9.5858
how	-9.58582
og	-9.59183
use	-9.59191
▁broke	-9.59288
hu	-9.59386
▁Imagine	-9.59505
▁company	-9.59505
▁bottom	-9.59508
▁100%	-9.59522
▁Wish	-9.59589
▁extremely	-9.59596
▁road	-9.59702
▁supposed	-9.59705
▁info	-9.5972
▁14	-9.5973
▁crap	-9.59798
lost	-9.59803
▁annoying	-9.59811
▁upset	-9.59847
▁interested	-9.59962
▁cu	-9.60133
▁action	-9.60231
▁min	-9.60282
ai	-9.60286
▁edit	-9.60393
light	-9.60461
▁realized	-9.60505
▁treat	-9.60505
▁rules	-9.60537
ank	-9.60729
▁19	-9.60737
fl	-9.60746
▁fault	-9.60975
▁conversation	-9.60979
▁Nothing	-9.60983
▁gotten	-9.60987
▁Ra	-9.61281
▁Give	-9.61417
▁cannot	-9.61448
art	-9.61474
ier	-9.61604
ans	-9.61772
▁meet	-9.61902
▁risk	-9.62083
com	-9.62197
▁starting	-9.62261
▁wondering	-9.62398
ide	-9.62423
▁floor	-9.62468
▁middle	-9.6247
▁smart	-9.6247
▁drunk	-9.62471
▁message	-9.62499
▁spent	-9.62528
terror	-9.62537
▁bus	-9.62648
hilarious	-9.62653
led	-9.6268
▁Lo	-9.62681
▁air	-9.629
▁problems	-9.63095
▁land	-9.63245
▁IS	-9.63472
dic	-9.63755
▁choice	-9.63796
▁worked	-9.63855
▁daughter	-9.63983
▁travel	-9.63983
▁large	-9.63985
▁Okay	-9.64005
ew	-9.64069
uc	-9.64096
IT	-9.64132
▁changed	-9.64227
right	-9.64318
▁bare	-9.64452
wo	-9.64688
ward	-9.64701
▁continue	-9.64752
▁hi	-9.64833
▁pet	-9.64908
ough	-9.6499
car	-9.65089
ham	-9.65178
▁posting	-9.65202
▁horror	-9.65274
▁didnt	-9.65301
▁handle	-9.6533
▁price	-9.65391
▁term	-9.65465
▁<3	-9.65522
▁position	-9.65522
▁banned	-9.65523
▁excuse	-9.65524
▁nightmare	-9.65607
▁bigge	-9.65698
pic	-9.65711
shocking	-9.65744
▁100	-9.65751
▁till	-9.65779
▁ass	-9.66148
▁race	-9.66336
▁forever	-9.66459
▁sta	-9.66568
▁du	-9.66703
▁concern	-9.66758
rb	-9.66795
▁accept	-9.66836
▁IT	-9.66932
ile	-9.67022
▁Interesting	-9.67084
▁society	-9.67084
▁insane	-9.67085
▁buddy	-9.67085
▁abuse	-9.67103
▁stuck	-9.67107
▁photo	-9.67123
ax	-9.67136
▁Idk	-9.67181
rant	-9.67292
horror	-9.67336
▁American	-9.67349
▁notice	-9.67361
fi	-9.67401
back	-9.67461
▁town	-9.67568
▁ending	-9.67573
rought	-9.67574
▁hasn	-9.67619
RO	-9.67785
▁feelings	-9.68014
av	-9.68218
▁cover	-9.68283
▁strange	-9.68389
▁da	-9.6842
dom	-9.6842
▁final	-9.68448
▁peace	-9.68587
▁toward	-9.68644
ek	-9.68646
▁million	-9.68671
▁physical	-9.68673
▁political	-9.68674
▁China	-9.68685
▁reference	-9.68689
▁update	-9.68745
cl	-9.68749
▁personally	-9.68987
▁Try	-9.69028
▁paid	-9.69057
▁teacher	-9.69098
▁Sure	-9.69122
▁burn	-9.69273
▁bother	-9.69442
rk	-9.69631
wi	-9.69779
▁finish	-9.69842
▁pic	-9.6987
CH	-9.699
▁surprise	-9.69993
▁slow	-9.70121
▁sa	-9.70175
▁ten	-9.70244
▁random	-9.7029
ern	-9.70495
▁stranger	-9.70572
panic	-9.70604
▁allowed	-9.7062
ists	-9.70681
▁cant	-9.70684
▁x	-9.70767
▁write	-9.70779
18	-9.70788
ign	-9.70795
▁weren	-9.70955
ja	-9.70984
ries	-9.71011
▁fell	-9.71015
▁boys	-9.71064
unless	-9.71144
af	-9.71151
▁block	-9.71509
▁fix	-9.71519
▁hurts	-9.71595
▁complete	-9.71699
He	-9.71756
▁nervous	-9.71815
▁general	-9.71861
▁trans	-9.71918
▁across	-9.71924
▁decision	-9.71924
▁twice	-9.71924
▁above	-9.7193
▁color	-9.7194
▁Stay	-9.71947
▁Someone	-9.71961
▁weekend	-9.71966
form	-9.7198
▁unfortunately	-9.72012
".	-9.72054
▁page	-9.72121
men	-9.72136
▁mostly	-9.72184
▁customer	-9.72225
▁pe	-9.72309
▁Time	-9.72333
▁cop	-9.72336
OR	-9.72339
▁personal	-9.72461
ki	-9.7257
▁vs	-9.72577
▁lie	-9.72652
▁Hahaha	-9.7266
low	-9.72731
LL	-9.72747
Mo	-9.72797
▁NO	-9.72815
▁mis	-9.72918
LE	-9.73006
▁lucky	-9.73034
read	-9.73082
well	-9.731
▁mention	-9.7319
▁career	-9.73216
cc	-9.73248
ED	-9.73348
this	-9.73391
▁waste	-9.73551
▁Ugh	-9.73576
▁difficult	-9.7359
▁jealous	-9.7359
▁moving	-9.73591
▁dangerous	-9.73596
▁rid	-9.73598
▁gross	-9.73614
▁compare	-9.73627
▁nobody	-9.73676
▁missing	-9.73721
▁First	-9.73783
▁green	-9.73785
▁Our	-9.73786
live	-9.7384
▁boo	-9.73962
▁scary	-9.73983
▁bright	-9.73983
▁op	-9.74022
▁happiness	-9.74055
ef	-9.74112
▁sexual	-9.74219
▁weak	-9.74378
▁cares	-9.7442
ative	-9.74552
▁BE	-9.74555
Co	-9.74623
air	-9.74724
▁Here	-9.74744
11	-9.74746
▁tr	-9.74803
▁murder	-9.74836
rew	-9.74865
▁downvote	-9.74877
▁lo	-9.74878
▁ban	-9.74983
▁leaving	-9.75285
▁attempt	-9.75285
▁Weird	-9.75287
▁otherwise	-9.75305
▁killing	-9.75305
▁wake	-9.75318
▁chill	-9.75423
▁MY	-9.75458
▁football	-9.75463
▁within	-9.75587
▁decided	-9.75656
▁lives	-9.758
ung	-9.75819
▁ur	-9.75831
▁along	-9.75952
port	-9.76003
▁learned	-9.76175
bra	-9.76276
▁pop	-9.76328
▁Bo	-9.76368
ugh	-9.76806
▁ga	-9.76911
▁Exactly	-9.77009
▁Welcome	-9.77009
▁illegal	-9.77009
▁league	-9.77009
▁username	-9.77009
ope	-9.77009
▁negative	-9.7701
▁Cheers	-9.77012
▁loud	-9.77013
▁places	-9.77017
▁comp	-9.77057
▁stopped	-9.77079
ble	-9.77185
▁rate	-9.7724
▁father	-9.77287
▁:/	-9.77402
▁More	-9.77423
serious	-9.77441
▁pissed	-9.77614
▁gift	-9.77619
EE	-9.77738
EA	-9.77743
▁wearing	-9.77811
▁sh	-9.77908
▁fighting	-9.78148
▁Yea	-9.78232
ld	-9.78249
▁assume	-9.78319
▁site	-9.78322
▁legal	-9.78626
▁office	-9.78644
▁except	-9.78697
ump	-9.78723
▁--	-9.7875
▁prefer	-9.78754
▁contact	-9.78764
▁focus	-9.78764
▁remain	-9.78765
▁example	-9.78766
▁daily	-9.78769
▁happening	-9.78775
kin	-9.78792
LO	-9.78964
▁trip	-9.78972
▁reality	-9.78993
ory	-9.7911
good	-9.79228
risk	-9.79467
ron	-9.79505
▁joy	-9.7958
▁legs	-9.79674
Me	-9.7976
▁teams	-9.79813
▁#1	-9.79871
ible	-9.79876
▁arms	-9.79928
▁hearing	-9.79947
▁ran	-9.79984
▁success	-9.80094
▁X	-9.80175
▁)	-9.80291
▁absolute	-9.80324
▁40	-9.80395
,000	-9.8053
▁Awesome	-9.80549
▁easily	-9.80549
▁contract	-9.8055
▁Always	-9.8055
▁;)	-9.8056
▁track	-9.80563
▁disappointed	-9.80618
▁Take	-9.80644
▁True	-9.80716
▁sent	-9.80787
▁quickly	-9.80838
lock	-9.8095
just	-9.81034
horrible	-9.81038
▁broken	-9.81108
bully	-9.81133
▁Di	-9.81172
▁gives	-9.81553
▁offended	-9.81612
ley	-9.81754
ning	-9.81804
▁join	-9.81919
▁older	-9.81958
▁hero	-9.81961
▁Could	-9.82008
▁Ar	-9.82269
unk	-9.82351
▁evidence	-9.82368
▁stomach	-9.82368
▁Actually	-9.82368
▁version	-9.82368
▁zero	-9.82368
▁lady	-9.82369
▁average	-9.82372
▁bunch	-9.82399
▁sitting	-9.82446
▁statement	-9.8245
20	-9.82463
rip	-9.82477
▁ignorant	-9.82479
▁Being	-9.82599
▁WE	-9.82652
ev	-9.82663
To	-9.82676
imp	-9.82696
▁code	-9.82757
50	-9.82816
▁born	-9.82824
▁downvoted	-9.82836
▁parent	-9.82884
field	-9.82893
▁dare	-9.82975
fuck	-9.83043
TS	-9.83129
pt	-9.83259
▁bra	-9.83336
▁def	-9.8343
ky	-9.83521
▁fl	-9.83696
▁seat	-9.83754
▁sadly	-9.83814
▁hospital	-9.83829
ame	-9.8391
▁exact	-9.8402
▁alive	-9.84126
▁pl	-9.84193
▁tax	-9.84197
bur	-9.84214
malicious	-9.8422
▁draft	-9.8422
▁plenty	-9.8422
▁offense	-9.8422
▁content	-9.84221
▁admit	-9.84222
▁series	-9.84226
▁ground	-9.84228
▁apparently	-9.84243
▁cheer	-9.84276
▁Pro	-9.84278
▁somehow	-9.84372
▁bi	-9.8442
▁summer	-9.84485
▁hang	-9.84589
wan	-9.84608
what	-9.84701
▁prove	-9.84782
▁16	-9.8479
▁rule	-9.84838
▁Day	-9.84998
har	-9.85093
itch	-9.85178
▁^	-9.85253
▁key	-9.85256
▁burning	-9.85278
▁pa	-9.85589
▁piss	-9.85673
start	-9.85706
▁tough	-9.85914
▁film	-9.85973
▁mod	-9.85975
▁Mi	-9.8608
▁sentence	-9.86117
▁snow	-9.8613
▁somewhere	-9.86178
▁scare	-9.86202
ker	-9.86284
lan	-9.86361
ities	-9.86391
LY	-9.86539
oh	-9.86555
▁bo	-9.86625
sober	-9.86715
▁fucked	-9.86766
▁Doesn	-9.86867
▁faith	-9.86892
▁Hu	-9.86948
▁gr	-9.87013
▁anger	-9.87015
hhh	-9.87017
▁arm	-9.87042
▁thoughts	-9.87111
▁Am	-9.87191
▁expecting	-9.87271
▁18	-9.87371
coming	-9.87447
▁whe	-9.87514
▁kick	-9.87615
uff	-9.87801
▁Le	-9.87822
▁Isn	-9.87875
▁effect	-9.88002
▁Congratulations	-9.88029
▁easier	-9.88029
▁favourite	-9.88029
▁THAT	-9.88029
▁bought	-9.8803
▁jerk	-9.8803
▁attractive	-9.88033
▁medical	-9.88033
▁window	-9.88044
▁immediately	-9.88058
▁porn	-9.8806
▁winter	-9.88149
▁hopefully	-9.88218
ook	-9.88252
▁force	-9.88302
▁❤️	-9.88436
▁suggest	-9.88663
▁blue	-9.88712
▁TV	-9.88769
▁creat	-9.88934
▁Come	-9.89025
▁painful	-9.89044
fu	-9.89243
ified	-9.89331
zz	-9.89337
lon	-9.89348
ple	-9.89406
▁steal	-9.89411
▁build	-9.89417
▁Ch	-9.89466
▁Mar	-9.89531
mb	-9.89727
▁bear	-9.89779
▁cheap	-9.89817
▁incredibl	-9.89837
🏻	-9.89895
ban	-9.89944
her	-9.89963
▁language	-9.8999
▁married	-9.8999
▁quality	-9.8999
▁quarantine	-9.8999
▁caught	-9.8999
▁street	-9.8999
▁loving	-9.8999
▁refuse	-9.89991
▁omg	-9.89993
▁search	-9.89995
▁decent	-9.90033
▁recently	-9.90119
▁rage	-9.90137
▁garbage	-9.90164
▁Nope	-9.90302
VE	-9.90341
log	-9.90427
▁style	-9.90455
▁box	-9.9046
ash	-9.90516
▁inter	-9.90625
dark	-9.90681
▁adult	-9.90753
▁minute	-9.90784
▁Ya	-9.91031
aking	-9.91073
get	-9.91125
lor	-9.91343
▁moved	-9.91518
▁bc	-9.91532
▁decide	-9.91571
ik	-9.91602
▁ride	-9.91607
▁helped	-9.91629
▁coach	-9.91771
mber	-9.91798
▁Chinese	-9.9199
▁Especially	-9.9199
▁driving	-9.9199
▁fantastic	-9.9199
▁purpose	-9.9199
▁simply	-9.9199
▁damage	-9.9199
▁information	-9.9199
▁crowd	-9.91991
▁stories	-9.91993
▁describe	-9.91996
▁Super	-9.92002
▁cops	-9.92014
▁guns	-9.92024
▁reaction	-9.92055
lively	-9.92058
▁genuinely	-9.92066
▁paying	-9.92069
▁se	-9.92074
▁interview	-9.92114
▁fo	-9.92117
▁pure	-9.92153
▁YouTube	-9.92195
▁crime	-9.92195
▁court	-9.92199
Ro	-9.92215
▁toxic	-9.92225
▁200	-9.92239
▁market	-9.92328
▁helps	-9.92337
▁paper	-9.92345
nother	-9.92589
afraid	-9.92701
tru	-9.92745
ude	-9.9293
nyone	-9.92943
▁consider	-9.92973
▁keeps	-9.9307
ink	-9.93121
!!!!!	-9.93393
cha	-9.93445
▁laughed	-9.93454
▁caused	-9.93486
ging	-9.9353
▁teach	-9.93533
▁destroy	-9.93583
▁ignore	-9.93589
▁seemed	-9.93619
she	-9.93708
▁Pre	-9.93772
▁obvious	-9.93805
UN	-9.9389
UR	-9.93917
▁hug	-9.93937
▁Seriously	-9.94031
▁accurate	-9.94031
▁defense	-9.94031
▁stream	-9.94031
▁broadcast	-9.94031
▁bullshit	-9.94032
▁Funny	-9.94044
▁moron	-9.94048
▁detail	-9.94052
▁fellow	-9.94052
▁politics	-9.94054
▁bill	-9.94175
▁religion	-9.94184
▁Na	-9.94197
▁terrifying	-9.94268
night	-9.94401
uk	-9.94403
▁science	-9.94407
aaa	-9.94435
nna	-9.9446
jo	-9.9449
▁charge	-9.94524
▁mix	-9.94555
▁feed	-9.94709
@	-9.9473
▁itself	-9.94769
free	-9.94775
girl	-9.94788
ler	-9.94793
revenge	-9.94901
99	-9.95004
fin	-9.95023
▁ice	-9.95084
▁Seem	-9.95085
▁ON	-9.95179
We	-9.95505
▁Mr	-9.95517
Ca	-9.95586
--	-9.95672
▁harder	-9.95755
▁Should	-9.95791
pp	-9.95808
▁leg	-9.9606
▁process	-9.96114
▁judge	-9.96118
▁choose	-9.96119
▁hide	-9.96153
▁role	-9.96164
oke	-9.96203
▁pizza	-9.96328
▁calm	-9.96363
▁bot	-9.964
So	-9.96599
▁25	-9.9666
▁quit	-9.96699
▁90	-9.96815
▁By	-9.97225
15	-9.97262
▁walking	-9.97435
▁quote	-9.97496
12	-9.97501
can	-9.97552
▁LA	-9.97672
▁mi	-9.97743
that	-9.97867
ji	-9.97997
ok	-9.98059
▁known	-9.98075
▁rare	-9.98089
▁Al	-9.9809
arch	-9.98112
▁enjoyed	-9.98156
hill	-9.98158
▁11	-9.98183
▁Guangzhou	-9.98242
▁Canada	-9.98242
▁innocent	-9.98242
▁screen	-9.98242
▁wild	-9.98246
▁everywhere	-9.9827
From	-9.98387
▁helpful	-9.98418
▁knows	-9.9843
▁certainly	-9.9844
▁characters	-9.98528
▁allow	-9.98595
▁writing	-9.98634
Re	-9.98684
▁fail	-9.98695
▁Life	-9.98705
▁considering	-9.98846
▁folks	-9.98852
vo	-9.98887
van	-9.99096
down	-9.9913
vin	-9.9925
some	-9.99277
▁hole	-9.99446
▁depressing	-9.99455
▁holding	-9.99468
gue	-9.9952
ike	-9.99597
een	-9.99711
pping	-9.99768
▁beer	-9.99772
▁panic	-9.9985
▁confirm	-9.99966
sha	-10
aaaa	-10.001
oooo	-10.0032
▁owner	-10.0033
▁recommend	-10.0038
▁adorable	-10.0042
▁website	-10.0042
▁Something	-10.0042
▁multiple	-10.0042
▁blind	-10.0042
▁Except	-10.0042
▁club	-10.0046
▁data	-10.0046
▁drugs	-10.0053
▁Big	-10.007
▁press	-10.007
▁lovely	-10.0082
▁member	-10.0084
▁‘	-10.0085
▁na	-10.0088
rock	-10.0096
▁concerned	-10.0104
▁weight	-10.012
your	-10.0123
▁balls	-10.0124
~~	-10.013
game	-10.0135
▁Their	-10.0138
▁hat	-10.0144
▁ain	-10.0146
▁tri	-10.0154
ase	-10.0155
▁rock	-10.0176
▁videos	-10.0178
▁revenge	-10.0185
cal	-10.0188
boy	-10.0204
▁mode	-10.0214
▁bully	-10.0217
!”	-10.0218
ney	-10.0227
bar	-10.0239
▁reach	-10.0256
▁spirit	-10.0263
–	-10.0264
▁Unfortunately	-10.0264
▁beyond	-10.0264
▁period	-10.0264
▁policy	-10.0264
▁Definitely	-10.0264
▁expensive	-10.0264
▁bud	-10.0264
▁switch	-10.0264
▁boring	-10.0265
▁email	-10.0266
▁woke	-10.0267
▁rude	-10.0268
▁Yup	-10.027
▁partner	-10.0273
▁fu	-10.0273
In	-10.0274
▁rain	-10.0275
wh	-10.0277
▁shitty	-10.0285
pl	-10.0287
▁earn	-10.0288
cur	-10.0295
▁wind	-10.0304
▁removed	-10.0309
▁considered	-10.0313
▁va	-10.0317
▁emotional	-10.0319
▁forced	-10.0323
ual	-10.0326
▁building	-10.0329
&	-10.0359
▁shoot	-10.0359
funny	-10.036
▁memes	-10.037
lol	-10.0373
▁listening	-10.0378
Ma	-10.0384
▁ST	-10.0387
▁Had	-10.0395
au	-10.0411
▁official	-10.0417
▁checked	-10.0423
▁design	-10.0429
par	-10.0439
▁sell	-10.0459
.\	-10.0461
post	-10.0476
TH	-10.0484
▁Twitter	-10.0491
▁behavior	-10.0491
▁channel	-10.0491
▁context	-10.0491
▁karma	-10.0491
▁regular	-10.0491
▁Enjoy	-10.0491
▁huh	-10.0491
▁appear	-10.0491
▁dress	-10.0492
▁boyfriend	-10.0492
▁Absolutely	-10.0493
▁2019	-10.0493
▁everybody	-10.0494
▁Nobody	-10.0497
▁professional	-10.0503
▁sw	-10.0507
▁mass	-10.0513
▁bigger	-10.0519
cent	-10.0523
19	-10.0531
▁challenge	-10.0533
iest	-10.0533
▁crack	-10.0541
hr	-10.0546
▁mentioned	-10.0552
▁finished	-10.0554
▁evil	-10.056
MA	-10.0567
▁lies	-10.0572
▁helping	-10.0575
😂	-10.0578
▁knowing	-10.0581
ily	-10.0582
▁size	-10.0588
▁ahead	-10.0589
▁fi	-10.0596
▁defend	-10.0596
▁speaking	-10.0605
▁😭	-10.0614
ONE	-10.0619
▁lines	-10.0621
▁bag	-10.0624
▁logic	-10.0625
▁dr	-10.0643
▁finding	-10.0645
▁0	-10.0648
▁idiots	-10.0677
▁limit	-10.0679
cor	-10.0688
mission	-10.0693
ole	-10.0698
▁current	-10.0701
16	-10.0715
▁questions	-10.072
▁major	-10.072
▁album	-10.0724
▁earlier	-10.0724
▁Totally	-10.0724
▁ticket	-10.0724
▁program	-10.0724
▁culture	-10.0724
▁truck	-10.0725
▁nation	-10.0728
▁Tell	-10.0737
▁bitter	-10.0757
▁grand	-10.076
▁shirt	-10.0763
ride	-10.0767
▁sur	-10.0768
▁bitch	-10.0771
▁delicious	-10.0773
▁😊	-10.0779
▁shooting	-10.0783
tom	-10.0804
▁healthy	-10.0819
ability	-10.0823
▁hated	-10.0829
▁related	-10.0829
unhappy	-10.0834
ition	-10.0847
▁sea	-10.0854
depressing	-10.0861
▁~~	-10.0866
Last	-10.0875
snap	-10.0901
▁stayed	-10.0902
▁draw	-10.0906
▁loo	-10.0909
▁wash	-10.0913
▁blow	-10.0943
BB	-10.0962
▁popular	-10.0962
▁LOVE	-10.0962
▁OMG	-10.0962
▁false	-10.0962
▁afford	-10.0962
▁present	-10.0962
▁alright	-10.0962
▁decade	-10.0962
▁dying	-10.0962
▁asshole	-10.0963
▁indeed	-10.0963
▁suit	-10.0967
▁earth	-10.0967
▁Read	-10.0968
▁shocking	-10.097
▁Cool	-10.097
▁shower	-10.0971
▁dating	-10.0974
▁carry	-10.0979
ball	-10.098
”?	-10.0996
ose	-10.0997
▁tend	-10.1006
▁national	-10.1007
▁Out	-10.1008
▁park	-10.1015
are	-10.1017
▁delight	-10.1024
▁driver	-10.1033
▁deserves	-10.1046
war	-10.1063
▁note	-10.1067
people	-10.1073
laughter	-10.1074
▁meeting	-10.1078
house	-10.108
▁13	-10.1101
ina	-10.1101
iz	-10.1106
No	-10.1109
▁sun	-10.1114
▁result	-10.1128
▁facts	-10.1142
SE	-10.1145
▁spread	-10.115
▁Sha	-10.1156
gging	-10.1176
▁animals	-10.1176
▁badly	-10.1178
▁certain	-10.1183
Le	-10.1188
▁third	-10.1206
▁traffic	-10.1206
▁silly	-10.1206
▁president	-10.1206
▁mask	-10.1207
▁uncomfortable	-10.1207
▁staff	-10.1208
▁moral	-10.1208
▁embarrassing	-10.1211
▁anywhere	-10.1211
▁scam	-10.1215
▁four	-10.122
rate	-10.1224
▁struggle	-10.1224
▁secret	-10.1231
▁useless	-10.1231
▁dogs	-10.1235
▁racism	-10.1251
▁mid	-10.1257
▁nose	-10.1265
▁shake	-10.127
key	-10.1272
▁ARE	-10.1276
▁mark	-10.128
▁create	-10.1291
▁brave	-10.1294
▁smiling	-10.1298
▁workers	-10.1299
▁rape	-10.1301
▁GO	-10.1303
▁band	-10.1303
▁hahaha	-10.1306
win	-10.131
▁cast	-10.1311
gh	-10.1311
😭	-10.1321
▁expected	-10.1323
glee	-10.1325
▁`	-10.1335
▁snap	-10.1342
UK	-10.1343
ock	-10.1348
▁affect	-10.1364
▁lay	-10.1365
▁Dr	-10.1381
▁field	-10.1384
▁tea	-10.1392
val	-10.1397
▁cheat	-10.1401
list	-10.1406
mil	-10.1409
▁Sc	-10.1422
▁rep	-10.143
Do	-10.1431
▁chat	-10.1434
▁MA	-10.1455
▁available	-10.1456
▁worries	-10.1456
▁thousand	-10.1456
▁smh	-10.1456
▁solid	-10.1457
▁shaking	-10.1457
▁cancer	-10.1458
real	-10.1459
▁winning	-10.1459
▁tree	-10.1459
▁despi	-10.1463
▁dance	-10.1464
▁harm	-10.1466
▁suddenly	-10.1466
▁table	-10.1472
45	-10.1476
▁Sadly	-10.1478
LA	-10.1485
▁Need	-10.1495
ify	-10.1506
▁bomb	-10.1509
hand	-10.1513
ray	-10.1524
▁cats	-10.153
▁gain	-10.1539
▁par	-10.1548
▁Sad	-10.1551
▁passed	-10.1563
▁Da	-10.1566
friend	-10.1575
haha	-10.1577
`	-10.1578
2016	-10.1578
oop	-10.1591
▁practice	-10.1592
▁wing	-10.16
Go	-10.1633
atch	-10.1659
▁buying	-10.1662
▁score	-10.1675
▁shoulder	-10.1684
▁serve	-10.1687
▁char	-10.1688
▁possibl	-10.1697
▁commit	-10.1712
Pakistan	-10.1712
▁potential	-10.1712
▁restaurant	-10.1712
▁coffee	-10.1712
▁speed	-10.1712
▁strength	-10.1713
▁root	-10.1713
▁dropped	-10.1715
▁girlfriend	-10.1715
▁eventually	-10.1716
▁freedom	-10.1716
▁trick	-10.1716
▁Play	-10.1717
▁selfish	-10.172
▁English	-10.1721
roll	-10.1722
▁rat	-10.1726
▁image	-10.1726
▁among	-10.1727
▁involved	-10.1734
▁ring	-10.1734
▁quiet	-10.1736
ami	-10.1744
▁nail	-10.175
▁dear	-10.1751
▁twitter	-10.1753
▁ju	-10.1763
▁legit	-10.1764
nor	-10.177
▁promise	-10.177
▁oil	-10.1773
▁🙄	-10.1774
fo	-10.1774
race	-10.1781
▁soft	-10.179
▁af	-10.1818
▁ALL	-10.1828
▁higher	-10.1842
power	-10.1843
▁imo	-10.1847
▁apart	-10.1857
▁sat	-10.1869
▁push	-10.1872
▁artist	-10.1876
▁stress	-10.1877
▁gu	-10.1892
oon	-10.1894
ave	-10.1898
▁pal	-10.19
ana	-10.1921
▁gen	-10.1922
▁cha	-10.1924
▁port	-10.1925
▁lots	-10.1927
▁require	-10.1931
talk	-10.1933
▁movies	-10.1936
▁ears	-10.194
Al	-10.1955
isa	-10.1958
▁War	-10.1967
▁foreign	-10.197
▁17	-10.1972
▁aware	-10.1973
▁attitude	-10.1975
▁church	-10.1975
▁condition	-10.1975
▁knock	-10.1975
▁liberal	-10.1975
▁population	-10.1975
▁target	-10.1975
▁throat	-10.1975
▁several	-10.1975
▁Finally	-10.1975
▁bastard	-10.1975
▁slightly	-10.1975
▁neck	-10.1975
▁deliver	-10.1975
▁kiss	-10.1976
▁btw	-10.1976
▁nasty	-10.1976
▁ill	-10.1978
▁swear	-10.1979
▁vibe	-10.1979
▁discussion	-10.1979
▁plus	-10.1981
▁repost	-10.1981
▁constantly	-10.1983
▁Hard	-10.1985
▁somebody	-10.1985
▁Bro	-10.1987
lift	-10.1988
▁written	-10.1991
▁careful	-10.1995
▁incredible	-10.1996
▁Guy	-10.1999
▁therapy	-10.1999
▁50	-10.2001
▁shocked	-10.2012
▁slowly	-10.2013
SH	-10.2022
new	-10.203
▁Call	-10.2037
▁ca	-10.2044
▁results	-10.2059
▁wi	-10.2062
horn	-10.207
?"	-10.2072
IR	-10.2079
▁gra	-10.2079
▁areas	-10.2087
rap	-10.209
▁throwing	-10.2106
▁Hell	-10.2112
face	-10.2126
▁dreams	-10.2128
▁unhappy	-10.2142
▁offend	-10.2152
pie	-10.2158
▁FUCK	-10.2169
▁acting	-10.217
▁pack	-10.217
▁successful	-10.2172
▁ends	-10.2183
▁Com	-10.2196
▁upon	-10.2201
▁West	-10.2203
▁hype	-10.2206
▁Hav	-10.223
▁cheese	-10.2245
▁injury	-10.2245
▁jersey	-10.2245
▁pathetic	-10.2245
▁background	-10.2245
▁prison	-10.2245
▁further	-10.2245
▁battle	-10.2246
▁demand	-10.2246
▁milk	-10.2246
▁dinner	-10.2247
▁chicken	-10.2248
▁YES	-10.2248
▁pressure	-10.2248
▁dislike	-10.2249
▁brand	-10.2249
▁punch	-10.2252
▁sadness	-10.2252
die	-10.2258
▁seek	-10.2267
▁begin	-10.2278
▁project	-10.2279
▁rush	-10.2281
▁five	-10.2282
▁concept	-10.2284
▁😂😂	-10.2291
▁alarm	-10.2299
▁Su	-10.2315
▁Say	-10.2325
▁Gu	-10.2327
AM	-10.2327
success	-10.2342
▁WA	-10.2355
▁Q	-10.2366
cap	-10.2369
__	-10.2374
ache	-10.2384
zy	-10.24
▁Ne	-10.2402
emp	-10.2424
cial	-10.2429
SA	-10.2431
joy	-10.2438
cheer	-10.2439
▁HE	-10.2441
care	-10.2454
▁flag	-10.246
self	-10.2472
▁24	-10.2478
▁delete	-10.248
pen	-10.2488
▁sir	-10.2491
▁Remind	-10.2492
CE	-10.2497
gen	-10.2505
▁holiday	-10.2509
▁glass	-10.2514
▁threat	-10.2518
sleep	-10.2519
▁si	-10.2519
▁Literally	-10.2523
▁commercial	-10.2523
▁opportunity	-10.2523
▁opposite	-10.2523
▁research	-10.2523
▁victim	-10.2523
▁click	-10.2523
▁cruel	-10.2523
▁teeth	-10.2523
gbbo	-10.2523
▁shift	-10.2523
▁brutal	-10.2524
▁lazy	-10.2524
▁screw	-10.2525
▁idk	-10.2525
▁fool	-10.2525
▁flair	-10.2525
▁Ju	-10.2526
▁penis	-10.2527
▁Shame	-10.2527
Team	-10.2528
▁dump	-10.2528
▁dirty	-10.2533
Been	-10.2533
▁pan	-10.2536
▁herself	-10.2538
▁heroes	-10.2538
▁babies	-10.2544
▁CO	-10.2549
▁bored	-10.2564
▁Tr	-10.2565
▁🤣	-10.2566
▁protest	-10.2571
▁shape	-10.2576
▁showing	-10.2582
rated	-10.2585
▁greatest	-10.2592
held	-10.2595
▁board	-10.2596
▁Ga	-10.2625
▁OF	-10.264
yo	-10.2644
▁saved	-10.2649
bad	-10.2659
▁reasons	-10.2673
▁2016	-10.2674
▁hire	-10.2678
▁speech	-10.2679
▁asleep	-10.268
▁outrage	-10.268
load	-10.2681
pper	-10.2683
point	-10.2683
▁pictures	-10.2685
ause	-10.2686
part	-10.269
za	-10.2694
▁sports	-10.2699
▁bas	-10.2708
▁anyways	-10.2713
▁lived	-10.2719
bby	-10.2726
ich	-10.2729
jack	-10.2735
team	-10.2741
▁suffer	-10.2751
▁scream	-10.2754
▁leader	-10.2755
▁release	-10.2769
▁understanding	-10.2775
▁seconds	-10.2796
▁meaning	-10.2802
ivity	-10.2809
▁Amazing	-10.2809
▁desperate	-10.2809
▁impossible	-10.2809
▁individual	-10.2809
▁insurance	-10.2809
▁machine	-10.2809
▁nonsense	-10.2809
▁pandemic	-10.2809
▁perspective	-10.2809
▁female	-10.2809
▁generation	-10.2809
▁Everything	-10.2809
▁giant	-10.2809
▁shoes	-10.2809
▁performance	-10.281
▁honor	-10.281
▁countries	-10.2811
▁capital	-10.2811
▁jail	-10.2812
▁tank	-10.2813
▁threaten	-10.2814
▁natural	-10.2815
▁rough	-10.2816
▁sky	-10.2816
▁billion	-10.2822
▁sink	-10.2823
Chris	-10.2826
Better	-10.2826
eat	-10.2829
▁brilliant	-10.2831
▁terms	-10.2832
▁Has	-10.2832
▁brown	-10.2835
▁Agreed	-10.2843
▁model	-10.2847
▁deleted	-10.2854
▁gym	-10.2854
▁lying	-10.2859
▁😍	-10.2862
▁😢	-10.2866
▁younger	-10.2869
▁rent	-10.2872
▁dull	-10.2873
▁willing	-10.2874
▁perfectly	-10.2876
▁total	-10.2883
▁entirely	-10.2899
▁ruined	-10.2899
De	-10.2907
▁~	-10.2909
▁awe	-10.2915
▁Trump	-10.2934
▁DO	-10.2948
▁include	-10.2962
▁none	-10.2964
trump	-10.2969
ama	-10.297
world	-10.297
▁ability	-10.2973
music	-10.2974
▁pla	-10.2984
▁King	-10.2984
heart	-10.2988
▁brings	-10.2995
▁matters	-10.2998
why	-10.3008
▁scar	-10.3014
▁Li	-10.3038
▁civil	-10.3053
▁onto	-10.3074
▁finger	-10.3077
▁students	-10.3088
▁express	-10.3098
▁accident	-10.3102
▁neighbor	-10.3103
▁subject	-10.3103
relentless	-10.3103
▁Australia	-10.3103
▁apologize	-10.3103
▁divorce	-10.3103
▁genius	-10.3103
▁intention	-10.3103
▁policies	-10.3103
▁wrote	-10.3103
▁relax	-10.3103
▁burst	-10.3103
▁argue	-10.3103
▁memory	-10.3104
▁clip	-10.3104
▁Shit	-10.3104
▁tiny	-10.3106
▁massive	-10.3107
▁dumbass	-10.3107
▁crash	-10.3107
▁shop	-10.3108
▁State	-10.311
▁Although	-10.3111
▁chose	-10.3112
▁Both	-10.3114
▁sake	-10.3116
▁minor	-10.312
▁bone	-10.3125
▁fish	-10.3125
▁stretch	-10.3125
▁male	-10.3125
▁fill	-10.3133
▁education	-10.3135
▁rn	-10.3141
▁gender	-10.3148
▁dry	-10.3149
▁sha	-10.3163
▁county	-10.3164
▁furious	-10.3174
▁yo	-10.3183
gged	-10.3188
lly	-10.3192
▁existed	-10.3196
▁grade	-10.3197
▁fav	-10.3198
app	-10.3203
▁sexy	-10.3216
lash	-10.3222
▁Ta	-10.3229
▁60	-10.3252
▁Uh	-10.3269
worry	-10.3273
help	-10.3273
▁laughter	-10.3282
▁UK	-10.3284
room	-10.3292
▁wins	-10.3292
▁terror	-10.3298
raw	-10.3303
▁SA	-10.331
▁sing	-10.3317
hood	-10.3323
▁cup	-10.3331
▁justice	-10.3341
vid	-10.3344
▁drug	-10.3346
bel	-10.3359
news	-10.3368
▁nor	-10.3376
word	-10.3376
▁knee	-10.3389
izing	-10.3391
***	-10.3392
▁improve	-10.3403
▁regard	-10.3403
▁specific	-10.3405
▁drama	-10.3405
▁assault	-10.3406
▁campaign	-10.3406
▁frustrating	-10.3406
▁pleasing	-10.3406
▁Either	-10.3406
▁village	-10.3406
▁impact	-10.3406
▁measure	-10.3406
▁credit	-10.3406
▁valid	-10.3406
▁confidence	-10.3406
▁lockdown	-10.3407
▁center	-10.3407
▁Think	-10.3407
under	-10.3408
▁proof	-10.3412
▁cash	-10.3413
▁citizen	-10.3414
▁Today	-10.3414
▁pics	-10.3416
▁auto	-10.3417
▁six	-10.342
▁active	-10.342
▁numbers	-10.3421
▁directly	-10.3423
▁corner	-10.3424
▁camera	-10.3428
▁dreadful	-10.3431
▁terrorism	-10.3431
▁reasonable	-10.3433
▁endless	-10.3435
▁memories	-10.3437
▁alt	-10.344
▁debate	-10.3442
▁bless	-10.3442
Mar	-10.3444
▁Girl	-10.345
▁Black	-10.3451
have	-10.3452
▁busy	-10.3455
▁pen	-10.3457
▁City	-10.3461
▁breath	-10.3473
▁DON	-10.3489
yl	-10.3494
▁HA	-10.3499
▁meat	-10.3505
nie	-10.3507
▁added	-10.3509
AP	-10.3515
ele	-10.3522
▁fired	-10.3522
▁cap	-10.3523
pu	-10.3525
▁product	-10.353
Po	-10.3531
body	-10.3541
US	-10.3547
where	-10.3551
chi	-10.3553
▁shy	-10.3553
▁mum	-10.356
▁rank	-10.356
state	-10.3581
Trump	-10.3584
offended	-10.3585
▁hugs	-10.3586
human	-10.359
▁drag	-10.3592
▁lock	-10.3594
▁adults	-10.3598
fail	-10.3609
look	-10.3611
<	-10.3637
▁flat	-10.3637
0%	-10.3642
22	-10.3645
ko	-10.367
▁suppose	-10.3675
ica	-10.3685
▁closed	-10.3686
unch	-10.3692
FA	-10.3695
uz	-10.3705
▁standard	-10.3715
▁phrase	-10.3719
▁private	-10.3719
▁represent	-10.3719
▁knowledge	-10.3719
▁address	-10.3719
▁expert	-10.3719
▁smoke	-10.3719
▁became	-10.3719
▁bottle	-10.3719
ization	-10.372
▁regardless	-10.3721
▁epic	-10.3722
▁Under	-10.3722
▁particular	-10.3723
▁highlight	-10.3725
▁lane	-10.3727
▁Other	-10.3729
▁hotel	-10.3733
▁disappointing	-10.3734
▁Russian	-10.3735
▁Up	-10.3737
ral	-10.3741
▁sober	-10.3743
▁favor	-10.3745
▁trend	-10.3746
▁fresh	-10.3756
▁tests	-10.3759
▁whenever	-10.3764
round	-10.3771
▁suffering	-10.3782
▁bike	-10.3783
▁holy	-10.3784
▁failed	-10.3785
▁cheating	-10.3791
▁bank	-10.3802
▁Over	-10.3805
▁lately	-10.3809
▁👏	-10.3837
▁Pe	-10.3844
▁fly	-10.3844
▁trolling	-10.3851
▁flu	-10.3867
more	-10.3871
▁wide	-10.3873
itter	-10.3883
▁playoffs	-10.3884
UT	-10.3891
hole	-10.3894
faith	-10.3907
rash	-10.3908
follow	-10.3908
col	-10.391
▁Yo	-10.3919
thank	-10.3924
▁tu	-10.3928
▁remove	-10.3928
stop	-10.3928
▁Fucking	-10.3938
▁gas	-10.394
▁shock	-10.394
▁guard	-10.3946
▁fam	-10.395
▁attacks	-10.3953
pat	-10.3955
Ha	-10.3972
restless	-10.398
▁Xin	-10.3982
▁pretend	-10.3983
they	-10.3983
▁respond	-10.3983
30	-10.3994
▁hurting	-10.3996
DR	-10.4017
▁sting	-10.4021
▁relate	-10.4022
▁cases	-10.4029
istic	-10.4037
▁announc	-10.4041
▁topic	-10.4041
GBBO	-10.4041
é	-10.4041
▁Christmas	-10.4041
▁Wonder	-10.4041
▁military	-10.4041
▁Check	-10.4041
▁error	-10.4041
▁twist	-10.4041
▁changing	-10.4041
▁National	-10.4041
▁horse	-10.4041
▁GET	-10.4041
▁depressed	-10.4042
▁chest	-10.4042
▁beginning	-10.4042
▁crush	-10.4042
▁wholesome	-10.4045
▁master	-10.4045
▁anybody	-10.4048
▁QB	-10.4049
pin	-10.4049
FC	-10.4053
▁familiar	-10.4057
▁moon	-10.406
▁boss	-10.4062
▁Wa	-10.4068
▁meal	-10.4071
▁currently	-10.4073
▁beauty	-10.4075
▁alcohol	-10.4075
▁humor	-10.4076
▁mourn	-10.4084
lie	-10.4087
fire	-10.4091
▁gay	-10.4091
▁horrific	-10.4092
▁overall	-10.41
bil	-10.4104
▁Fe	-10.4108
▁glo	-10.4117
▁🤔	-10.4118
cry	-10.4123
▁Wouldn	-10.4124
▁moments	-10.4126
▁Du	-10.4131
▁USA	-10.4135
▁80	-10.4138
ria	-10.4143
▁cheering	-10.4143
▁figured	-10.4156
ino	-10.4168
ternal	-10.4175
TE	-10.4175
ima	-10.4178
ably	-10.4196
▁google	-10.4214
▁actor	-10.422
break	-10.4224
▁su	-10.4243
outrage	-10.4245
▁falling	-10.4249
▁books	-10.4255
Lo	-10.4257
▁ob	-10.4273
iva	-10.428
umble	-10.4294
▁Gott	-10.4304
▁trigger	-10.433
▁opinions	-10.4343
▁enforce	-10.4344
fun	-10.4351
▁usual	-10.436
▁discuss	-10.4369
▁replace	-10.4372
pakistan	-10.4375
▁Remember	-10.4375
▁convince	-10.4375
▁injured	-10.4375
▁journey	-10.4375
▁neither	-10.4375
▁survive	-10.4375
▁degree	-10.4375
▁reject	-10.4375
▁surprising	-10.4375
▁frown	-10.4375
▁queen	-10.4375
▁irony	-10.4375
▁marriage	-10.4375
▁zone	-10.4375
verse	-10.4375
▁property	-10.4377
▁Lord	-10.4377
▁dread	-10.4377
▁failure	-10.4377
▁teen	-10.4378
▁basic	-10.4378
▁wave	-10.4378
▁study	-10.4379
▁egg	-10.4379
▁Fair	-10.4384
▁bowl	-10.4387
▁Ru	-10.4392
▁suggestion	-10.4395
TER	-10.4395
▁poster	-10.4399
▁energy	-10.44
▁OK	-10.4402
▁Miss	-10.4402
▁pound	-10.4403
▁Ex	-10.4405
book	-10.4407
▁belong	-10.4412
▁entertaining	-10.4413
▁FOR	-10.4417
slam	-10.4423
▁student	-10.4427
uncle	-10.4437
▁user	-10.4437
▁rec	-10.4441
YS	-10.4441
▁hip	-10.4452
▁UP	-10.4454
▁despair	-10.4455
▁fuckin	-10.4458
▁closer	-10.4479
vision	-10.448
gt	-10.4482
year	-10.4485
TO	-10.4486
▁voted	-10.4488
▁levels	-10.4492
chat	-10.4493
▁lower	-10.4497
hug	-10.4503
▁pun	-10.4506
▁loser	-10.4507
▁complaining	-10.4512
▁OH	-10.4518
late	-10.4551
▁Huh	-10.456
▁testing	-10.4565
▁classic	-10.4567
▁humans	-10.4573
▁Haven	-10.4574
FF	-10.4578
sexual	-10.4586
excited	-10.4586
▁button	-10.4587
black	-10.459
nick	-10.4597
▁standing	-10.4597
▁PM	-10.4629
ggle	-10.4629
writer	-10.4636
azi	-10.4642
ending	-10.4645
▁border	-10.4656
HO	-10.4659
hhhh	-10.467
now	-10.4675
OL	-10.4683
▁creep	-10.4696
▁sweat	-10.4696
▁equal	-10.4696
▁manage	-10.4702
▁recent	-10.4708
▁progress	-10.4717
👌	-10.4719
▁Netflix	-10.4719
▁WHAT	-10.4719
▁families	-10.4719
▁weapon	-10.4719
▁balance	-10.4719
▁joking	-10.4719
▁relatives	-10.4719
▁Source	-10.4719
▁Since	-10.4719
▁:-)	-10.4719
▁rational	-10.472
▁split	-10.472
▁security	-10.4721
▁lunch	-10.4721
▁kidding	-10.4721
burger	-10.4722
▁hadn	-10.4723
▁cunt	-10.4724
▁petty	-10.4724
▁Wors	-10.4725
▁effective	-10.4725
▁toilet	-10.4725
▁Liu	-10.4726
▁direction	-10.4726
▁react	-10.4728
snapchat	-10.4729
▁circle	-10.4731
ani	-10.474
▁tv	-10.4745
▁camp	-10.4746
leadership	-10.4746
▁useful	-10.4746
▁21	-10.4748
▁prices	-10.4749
▁bathroom	-10.4751
▁EU	-10.4751
▁haunt	-10.4755
▁birth	-10.4759
▁photos	-10.4767
OW	-10.4786
▁killer	-10.4786
▁raging	-10.4793
:)	-10.4801
▁Car	-10.482
▁songs	-10.4839
Pa	-10.4847
ALL	-10.4848
chu	-10.4851
▁Star	-10.4864
▁episodes	-10.4865
▁training	-10.487
^	-10.4875
lay	-10.4895
star	-10.4896
▁drinking	-10.4898
Ga	-10.4899
rin	-10.4915
▁map	-10.4916
bot	-10.4924
▁chi	-10.4927
▁Chi	-10.4929
▁Ni	-10.493
▁stars	-10.4932
east	-10.4935
▁dollars	-10.4939
👏	-10.4943
service	-10.4944
smiling	-10.4945
laugh	-10.4946
dream	-10.4952
▁learning	-10.496
high	-10.4964
▁contribut	-10.4967
▁bang	-10.4971
turn	-10.4972
avi	-10.4977
▁pray	-10.4979
HI	-10.4986
14	-10.4987
▁blues	-10.4992
▁skills	-10.4999
▁caus	-10.5001
▁incel	-10.5024
▁cook	-10.5025
▁rev	-10.5045
▁extreme	-10.5054
▁proper	-10.5069
▁products	-10.5076
▁conservative	-10.5076
▁explanation	-10.5076
▁hockey	-10.5076
▁ignorance	-10.5076
▁pregnant	-10.5076
▁approach	-10.5077
▁criminal	-10.5077
▁access	-10.5077
▁mountain	-10.5077
▁cheek	-10.5077
▁therapist	-10.5077
▁lawyer	-10.5077
▁vegan	-10.5077
▁basketball	-10.5077
▁Wtf	-10.5077
▁solve	-10.5078
▁accidentally	-10.5078
▁existence	-10.5079
▁refs	-10.508
▁comfortable	-10.508
▁House	-10.508
▁foul	-10.5082
▁pants	-10.5083
▁rap	-10.5089
▁YOUR	-10.5093
▁host	-10.5096
▁Ask	-10.5097
▁elected	-10.5097
▁pitch	-10.5097
▁properly	-10.5099
▁shall	-10.5101
mind	-10.5101
▁lesson	-10.5107
▁"[	-10.5108
▁Str	-10.5109
▁server	-10.5113
ara	-10.5113
▁rejoice	-10.5114
▁profit	-10.5115
▁Cut	-10.5117
tric	-10.5118
▁MO	-10.5118
▁animal	-10.512
▁managed	-10.5123
▁😅	-10.5124
▁World	-10.5124
▁noise	-10.5124
▁generally	-10.5127
▁mood	-10.5131
▁holidays	-10.5133
▁named	-10.5137
▁faster	-10.5137
▁election	-10.5142
▁flying	-10.5143
▁counter	-10.5148
▁ski	-10.5149
▁annoyed	-10.5152
ctor	-10.5159
▁gar	-10.5164
▁sold	-10.5168
head	-10.517
▁Eh	-10.5172
▁below	-10.5173
▁madden	-10.5177
▁stone	-10.5178
mate	-10.5185
there	-10.5209
▁mag	-10.5214
MM	-10.5216
▁depends	-10.523
▁HO	-10.5243
ou	-10.5249
▁includ	-10.5251
▁Aw	-10.5261
▁aim	-10.5286
del	-10.5288
action	-10.5301
pain	-10.5308
justice	-10.5315
phone	-10.5323
▁imagin	-10.5327
▁develop	-10.533
with	-10.5333
hold	-10.5353
chan	-10.5363
43	-10.5366
Hey	-10.5375
never	-10.5388
▁Pl	-10.5389
▁spell	-10.5393
▁raise	-10.5403
▁Agree	-10.5403
▁bat	-10.5406
▁previous	-10.5423
▁cheerful	-10.5428
politic	-10.5445
▁range	-10.5447
realDonaldTrump	-10.5447
▁Facebook	-10.5447
▁WITH	-10.5447
▁democracy	-10.5447
▁financial	-10.5447
▁gorgeous	-10.5447
▁infection	-10.5447
▁necessary	-10.5447
▁relevant	-10.5447
tantrum	-10.5447
▁employee	-10.5447
▁organization	-10.5447
▁violent	-10.5447
▁Consider	-10.5447
▁material	-10.5447
▁prevent	-10.5447
▁afternoon	-10.5447
▁accuse	-10.5447
▁grudge	-10.5447
▁Must	-10.5448
▁HAVE	-10.5448
wreck	-10.5448
▁^(	-10.5449
▁hatred	-10.5449
▁Mon	-10.545
▁ppl	-10.5452
▁Old	-10.5452
ridge	-10.5456
AAA	-10.5461
▁Two	-10.5461
ology	-10.547
▁pout	-10.5474
▁Men	-10.5476
▁Back	-10.5481
▁White	-10.5482
▁path	-10.5485
▁supporters	-10.5491
▁eh	-10.5493
GO	-10.5494
▁Mine	-10.5498
▁cancel	-10.5499
▁locked	-10.5502
▁com	-10.5507
▁comfort	-10.5508
▁letter	-10.551
70	-10.5511
▁cla	-10.5517
▁comic	-10.5517
▁screaming	-10.5523
▁fairly	-10.5532
▁aside	-10.5554
▁irritate	-10.5559
tribute	-10.5562
fur	-10.5564
▁net	-10.5565
angle	-10.5568
▁emotions	-10.557
▁beside	-10.5573
hate	-10.5588
▁signed	-10.5593
▁created	-10.56
▁Bad	-10.5611
Har	-10.5612
▁messed	-10.5622
▁votes	-10.5623
▁nut	-10.563
▁tall	-10.5633
ken	-10.5636
▁Qu	-10.5639
very	-10.5649
CK	-10.5658
▁AM	-10.5667
uuu	-10.5667
▁Feels	-10.5672
25	-10.5675
▁TH	-10.5684
~	-10.5696
cant	-10.5697
▁Poli	-10.5697
▁gif	-10.5699
ette	-10.5708
▁recognize	-10.5717
......	-10.5718
lies	-10.5721
CNN	-10.5725
▁fac	-10.5727
unite	-10.5727
nch	-10.5741
▁provide	-10.5746
mad	-10.5747
▁farm	-10.5751
▁Tri	-10.5753
watch	-10.5754
▁pat	-10.5775
▁breaking	-10.579
▁receiv	-10.5791
▁Mom	-10.5796
▁South	-10.5805
▁dealing	-10.5809
▁ear	-10.5816
call	-10.5819
All	-10.5825
▁collect	-10.5828
ya	-10.583
▁Apparently	-10.5831
▁Florida	-10.5831
▁Saturday	-10.5831
▁achieve	-10.5831
▁apologies	-10.5831
▁curiosity	-10.5831
▁mobile	-10.5831
▁suspect	-10.5831
▁typical	-10.5831
▁violence	-10.5831
conflict	-10.5831
▁clothes	-10.5831
▁muscle	-10.5831
▁medicine	-10.5831
▁wrath	-10.5831
▁ghost	-10.5832
▁cousin	-10.5832
▁Yikes	-10.5832
▁assuming	-10.5832
▁heavy	-10.5832
▁tongue	-10.5832
▁Alright	-10.5833
▁douche	-10.5833
▁bird	-10.5833
▁planning	-10.5834
▁pee	-10.5835
▁2020	-10.5836
▁ship	-10.5836
▁shine	-10.5836
▁Kinda	-10.5838
▁buff	-10.584
▁bump	-10.5841
▁pool	-10.5842
▁pair	-10.5843
!!!!!!	-10.5844
▁plate	-10.5844
▁reward	-10.5844
▁spam	-10.5846
▁guilty	-10.5847
ool	-10.5848
▁wage	-10.5848
▁religious	-10.5856
ware	-10.5859
▁animated	-10.5861
hot	-10.5864
▁Put	-10.5866
gin	-10.587
orrow	-10.5885
▁copy	-10.589
65	-10.5894
▁income	-10.5899
emo	-10.5902
▁wood	-10.5909
▁chase	-10.5914
▁stronger	-10.5929
▁defending	-10.593
▁exists	-10.5935
shit	-10.5938
▁burned	-10.5941
▁yr	-10.5943
FUCKING	-10.5945
▁grim	-10.5945
▁BS	-10.5958
▁referr	-10.5966
▁pulled	-10.5968
▁Cha	-10.5971
▁Wasn	-10.5973
▁Real	-10.5974
ez	-10.5982
▁views	-10.5985
motivation	-10.5994
▁Sun	-10.6001
▁tear	-10.6005
▁claims	-10.6017
▁load	-10.6021
make	-10.6039
angel	-10.6042
▁meds	-10.6043
TR	-10.6045
IG	-10.6054
▁sleeping	-10.6065
void	-10.6082
▁Op	-10.6085
vic	-10.6088
count	-10.6099
worth	-10.61
ender	-10.61
That	-10.61
▁guessing	-10.6106
▁wondered	-10.6113
long	-10.6121
▁skip	-10.6128
Ho	-10.6137
rance	-10.6149
kill	-10.6151
bul	-10.6158
wing	-10.6159
ATE	-10.616
▁factor	-10.6161
shy	-10.6164
depress	-10.617
▁temp	-10.6183
▁CAN	-10.6195
▁realise	-10.62
need	-10.6209
Bo	-10.621
▁bull	-10.6211
▁optimism	-10.622
For	-10.6222
recovery	-10.6226
▁direct	-10.6231
‍♀️	-10.6231
▁Beautiful	-10.6231
▁environment	-10.6231
▁patient	-10.6231
▁quarter	-10.6231
▁defensive	-10.6231
▁Before	-10.6231
▁Women	-10.6231
▁platform	-10.6231
▁instantly	-10.6232
▁Israel	-10.6232
▁benefit	-10.6232
▁weather	-10.6232
▁engage	-10.6232
▁Guess	-10.6232
▁understood	-10.6233
▁scroll	-10.6233
▁definition	-10.6233
▁delay	-10.6235
▁joyful	-10.6236
▁apartment	-10.6236
gar	-10.6236
▁shout	-10.6236
▁hook	-10.6236
▁2018	-10.6237
▁majority	-10.6237
▁pink	-10.6238
▁Yang	-10.6241
▁Lots	-10.6244
▁whin	-10.6244
▁However	-10.6247
▁danger	-10.6249
▁headline	-10.625
▁wedding	-10.625
▁Bar	-10.6256
▁fashion	-10.6262
▁miserable	-10.6262
▁Post	-10.6265
▁corrupt	-10.6268
▁Chicago	-10.6268
▁lips	-10.627
▁anxious	-10.6273
▁Apple	-10.6279
▁choices	-10.6282
▁virgin	-10.6284
▁youtube	-10.6294
nI	-10.6297
pan	-10.6298
▁😩	-10.6307
▁Jo	-10.6311
▁singing	-10.6314
Help	-10.6315
▁rob	-10.6316
ised	-10.632
▁pushing	-10.6321
▁spreading	-10.6328
▁blessed	-10.6333
▁skill	-10.6339
▁sacrifice	-10.635
gate	-10.6353
lace	-10.6361
▁heck	-10.6369
▁PC	-10.6379
▁apple	-10.6385
▁attacked	-10.6389
▁$1	-10.6418
▁trump	-10.642
▁sin	-10.6429
▁grab	-10.6431
▁pointing	-10.644
ford	-10.6441
▁dec	-10.6443
▁nap	-10.6446
MP	-10.6455
▁heat	-10.6461
hoe	-10.6473
problem	-10.6515
family	-10.6515
grew	-10.6519
truth	-10.6527
.......	-10.6529
▁annoy	-10.6547
But	-10.6555
DS	-10.6571
train	-10.6596
TM	-10.6615
▁unfortunate	-10.663
america	-10.6639
▁addict	-10.6643
cast	-10.6645
▁clue	-10.6645
revolution	-10.6648
▁British	-10.6648
▁Obviously	-10.6648
▁advantage	-10.6648
▁candidate	-10.6648
▁congrats	-10.6648
▁essential	-10.6648
▁excellent	-10.6648
▁hundred	-10.6648
▁mirror	-10.6648
▁separate	-10.6648
▁podcast	-10.6648
▁cloud	-10.6648
▁plastic	-10.6648
▁monster	-10.6648
▁strike	-10.6648
Hillary	-10.6648
▁cried	-10.6649
▁liar	-10.6649
▁yellow	-10.665
▁chair	-10.6652
▁hometown	-10.6652
▁curse	-10.6653
▁settle	-10.6653
▁Plus	-10.6653
▁recover	-10.6655
▁AS	-10.6655
▁personality	-10.6657
▁foreigners	-10.6657
▁label	-10.6657
best	-10.6658
▁safety	-10.6659
▁gloomy	-10.6662
▁pine	-10.6668
▁😉	-10.6669
▁movement	-10.667
▁👍	-10.6671
40	-10.6672
▁hilarity	-10.6674
DAY	-10.6675
▁stupidity	-10.6682
▁playful	-10.6684
▁hitting	-10.6686
▁fingers	-10.6687
▁Red	-10.6688
▁wtf	-10.6697
vote	-10.6698
▁bru	-10.6705
▁justify	-10.6705
90	-10.6708
▁filled	-10.6712
▁🙏	-10.6715
▁Dad	-10.6716
▁rot	-10.6718
then	-10.6719
▁DM	-10.6719
fel	-10.6731
▁John	-10.6732
▁thrown	-10.6736
▁triggered	-10.6743
▁makeup	-10.6745
▁23	-10.6746
rag	-10.6746
▁grown	-10.6759
▁swing	-10.676
inder	-10.6761
mmun	-10.6768
Mc	-10.6771
▁coaching	-10.6771
come	-10.6773
▁Lu	-10.6775
▁NY	-10.6777
▁treated	-10.6778
▁talented	-10.6797
▁tool	-10.6804
▁wine	-10.6804
▁ye	-10.6807
▁PR	-10.6808
▁Whil	-10.6808
ifi	-10.6819
▁wise	-10.6827
▁terrorist	-10.6827
▁officials	-10.683
▁weary	-10.6833
god	-10.6833
MO	-10.6835
▁pit	-10.6841
Bar	-10.686
▁India	-10.6861
fits	-10.6871
▁math	-10.6871
▁cow	-10.6889
▁IMO	-10.6892
big	-10.6893
17	-10.6896
wear	-10.6918
▁dig	-10.6929
SM	-10.6929
food	-10.6951
school	-10.6951
▁retire	-10.6953
▁opened	-10.6958
▁Gr	-10.6962
posi	-10.6964
home	-10.6967
pol	-10.6968
dding	-10.6973
wait	-10.6973
mark	-10.6974
GA	-10.6976
▁mini	-10.6977
pay	-10.6977
Wo	-10.698
LC	-10.6981
▁Hang	-10.6991
▁nuts	-10.7018
▁ironic	-10.702
▁nu	-10.7023
▁^^^	-10.704
evil	-10.7052
▁Way	-10.7064
▁salt	-10.7064
And	-10.7065
lthough	-10.7072
▁staying	-10.7075
▁Yay	-10.7077
fortunate	-10.7078
▁harass	-10.708
❤	-10.7081
▁Jiang	-10.7083
ccording	-10.7083
▁LIKE	-10.7083
▁absurd	-10.7083
▁alternative	-10.7083
▁department	-10.7083
▁economic	-10.7083
▁eyebrows	-10.7083
▁fantasy	-10.7083
▁horrifying	-10.7083
▁impressive	-10.7083
▁pleasure	-10.7083
▁retarded	-10.7083
▁sarcastic	-10.7083
▁tattoo	-10.7083
▁terrified	-10.7083
▁Texas	-10.7083
▁WHY	-10.7083
▁clown	-10.7083
▁disease	-10.7083
▁disorder	-10.7083
▁screenshot	-10.7083
▁lonely	-10.7083
▁belief	-10.7083
▁south	-10.7083
▁heaven	-10.7083
▁contain	-10.7083
▁elated	-10.7083
▁rubb	-10.7084
▁Personally	-10.7084
▁blanket	-10.7084
▁nerve	-10.7084
▁Sunday	-10.7085
▁famous	-10.7085
▁North	-10.7085
▁blast	-10.7085
▁frame	-10.7086
▁plot	-10.7087
▁Anyway	-10.7087
▁twin	-10.7087
▁brush	-10.7087
▁cities	-10.7089
▁standards	-10.7094
▁define	-10.7096
▁dash	-10.7097
▁utterly	-10.7097
ville	-10.7098
▁agent	-10.71
ENT	-10.7101
▁stage	-10.7102
▁knees	-10.7108
▁Home	-10.7109
hour	-10.711
▁breezy	-10.711
▁fascist	-10.711
▁End	-10.7116
▁Show	-10.7119
tech	-10.7121
▁heavi	-10.7121
▁dancing	-10.7122
▁habit	-10.7123
▁pig	-10.7124
▁pur	-10.7125
▁sauce	-10.7135
▁RIP	-10.7135
▁however	-10.7143
who	-10.7145
ux	-10.7148
▁kindness	-10.7153
▁cooking	-10.7154
▁Talk	-10.7155
▁officer	-10.7155
ddle	-10.7162
▁Bless	-10.7162
▁grateful	-10.7176
modern	-10.7182
▁pot	-10.7196
ari	-10.7202
▁El	-10.7207
▁Yet	-10.7212
▁planet	-10.7212
▁hum	-10.7215
▁hunt	-10.7218
▁rumors	-10.7241
▁produce	-10.7242
▁sec	-10.7252
Don	-10.7256
▁CH	-10.7259
awareness	-10.7266
▁CA	-10.7282
▁bias	-10.7284
▁glee	-10.7297
▁thin	-10.7301
▁passing	-10.7331
▁aggressive	-10.734
▁AB	-10.7352
blo	-10.7372
IVE	-10.7374
▁returning	-10.7374
hop	-10.7382
▁appreciated	-10.7386
ister	-10.7388
town	-10.7396
▁Though	-10.7402
=	-10.7404
This	-10.7406
NYC	-10.7411
going	-10.7415
▁Ti	-10.7415
water	-10.7417
think	-10.7419
pun	-10.742
▁gl	-10.7422
ask	-10.7425
inner	-10.7426
india	-10.7436
hell	-10.7445
▁Start	-10.7476
▁worrying	-10.7476
Not	-10.7478
bble	-10.7483
▁believ	-10.7494
▁discourage	-10.7494
irate	-10.7532
▁punish	-10.7537
author	-10.7537
inspiration	-10.7537
survivor	-10.7537
▁bizarre	-10.7537
▁blatant	-10.7537
▁comparison	-10.7537
▁impressed	-10.7537
▁ourselves	-10.7537
▁rejoicing	-10.7537
▁responsible	-10.7537
▁smooth	-10.7537
▁succeed	-10.7537
▁tradition	-10.7537
▁victory	-10.7537
▁audience	-10.7537
▁hidden	-10.7537
▁arrive	-10.7537
▁enemy	-10.7537
▁unique	-10.7537
▁dunno	-10.7538
▁monkey	-10.7538
▁empty	-10.7538
▁nature	-10.7538
▁ladies	-10.7538
▁accent	-10.7538
▁wealth	-10.7538
▁reflect	-10.7538
▁riot	-10.7538
▁anime	-10.7538
▁legend	-10.7538
▁Kids	-10.7539
▁ankle	-10.7539
▁repeat	-10.7539
▁betray	-10.7539
wisdom	-10.7539
▁High	-10.7539
▁review	-10.754
▁childhood	-10.754
▁$100	-10.754
▁appearance	-10.754
▁mild	-10.7541
▁sales	-10.7542
▁Russia	-10.7542
▁bridge	-10.7542
▁capable	-10.7543
▁HOW	-10.7545
▁mock	-10.7547
▁pill	-10.7548
▁scum	-10.7549
▁fever	-10.7552
▁chuckle	-10.7554
▁humanity	-10.7554
▁golden	-10.7555
▁aunt	-10.7559
▁stun	-10.7561
▁specifically	-10.7562
▁buck	-10.7566
▁sarcasm	-10.7566
enny	-10.7566
▁confident	-10.7573
▁slap	-10.7573
▁manager	-10.7574
▁grind	-10.7578
wind	-10.7578
▁cheaper	-10.7578
▁Fun	-10.7582
even	-10.7589
▁raised	-10.7592
▁dodge	-10.76
▁radio	-10.7612
▁responding	-10.762
▁limited	-10.7627
▁Sky	-10.7635
▁Val	-10.7638
▁destroyed	-10.7639
▁apply	-10.7646
▁drawing	-10.765
UB	-10.7651
▁cream	-10.7656
▁covered	-10.7669
34	-10.767
▁stealing	-10.7675
equi	-10.7709
cam	-10.7737
iction	-10.7742
rank	-10.7745
5%	-10.776
▁gut	-10.7792
▁magic	-10.7823
▁explaining	-10.7834
TF	-10.788
tweet	-10.788
happiness	-10.788
India	-10.788
should	-10.7881
grim	-10.7881
great	-10.7881
▁sum	-10.7887
▁PA	-10.7893
mom	-10.7896
▁swor	-10.7901
ium	-10.7902
▁FA	-10.7902
hurt	-10.7905
stay	-10.7918
▁bug	-10.7926
Day	-10.7926
TV	-10.794
▁Pi	-10.7941
cher	-10.7945
ERS	-10.7959
▁Ahh	-10.7975
▁yell	-10.7975
away	-10.7976
Of	-10.7984
▁boi	-10.8006
▁Japan	-10.8014
shudder	-10.8014
▁abortion	-10.8014
▁arguing	-10.8014
▁assumption	-10.8014
▁built	-10.8014
▁celebrate	-10.8014
▁corporate	-10.8014
▁happier	-10.8014
▁inappropriate	-10.8014
▁increase	-10.8014
▁influence	-10.8014
▁offensive	-10.8014
▁profile	-10.8014
▁propaganda	-10.8014
▁scenario	-10.8014
▁consequence	-10.8014
▁silence	-10.8014
▁universe	-10.8014
▁Friday	-10.8014
▁Internet	-10.8014
▁Sweet	-10.8014
▁minimum	-10.8014
▁burden	-10.8014
▁roast	-10.8014
▁solution	-10.8014
▁Weibo	-10.8014
▁sneak	-10.8014
concert	-10.8014
▁distance	-10.8014
▁gentle	-10.8014
▁severe	-10.8014
▁isolation	-10.8014
▁elder	-10.8014
▁prepared	-10.8014
▁ashamed	-10.8014
▁sugar	-10.8014
▁Shut	-10.8014
▁Work	-10.8014
▁encourage	-10.8014
▁Find	-10.8015
▁network	-10.8015
▁Turn	-10.8015
▁Leave	-10.8015
▁forgive	-10.8015
▁hungry	-10.8015
▁East	-10.8016
▁warning	-10.8017
▁spoke	-10.8017
▁stock	-10.8018
▁gather	-10.8018
▁Fl	-10.8018
▁invest	-10.8018
▁grandma	-10.8019
▁beating	-10.8019
▁realistic	-10.802
▁tele	-10.802
▁ignoring	-10.802
Blue	-10.8021
▁Clearly	-10.8021
▁fuel	-10.8021
▁shitpost	-10.8023
lou	-10.8023
▁treatment	-10.8023
plan	-10.8026
▁Hello	-10.8029
▁stir	-10.8029
▁protection	-10.803
▁bigot	-10.8031
▁Much	-10.8035
▁disturbing	-10.8035
▁exhilarating	-10.8037
▁taxes	-10.8038
▁nowhere	-10.8039
▁everyday	-10.8044
▁somewhat	-10.8045
▁tag	-10.8045
▁spin	-10.8046
▁equally	-10.8046
▁exam	-10.8049
▁boiling	-10.805
▁insecure	-10.805
▁Game	-10.8053
▁😆	-10.8063
▁sparkling	-10.8065
▁pour	-10.8067
▁Sho	-10.807
▁😡	-10.8071
▁pointless	-10.8072
▁cycle	-10.8077
▁OUT	-10.8077
▁sand	-10.8078
▁Boy	-10.8083
▁vent	-10.8087
▁mentally	-10.8094
▁scored	-10.8097
13	-10.8102
She	-10.8107
▁file	-10.8111
▁comedy	-10.8126
aid	-10.8131
▁spit	-10.8136
media	-10.8143
▁70	-10.8146
An	-10.8146
▁handled	-10.8161
▁bath	-10.8166
Hi	-10.8167
▁poorly	-10.8176
ACT	-10.8182
Break	-10.8188
▁wishes	-10.8192
law	-10.8196
ench	-10.8197
▁goodness	-10.8198
▁melt	-10.8202
LD	-10.8205
▁listened	-10.8208
OWN	-10.8214
▁deserved	-10.824
▁para	-10.8247
49	-10.8247
500	-10.825
Hu	-10.8252
▁AT	-10.8254
Mi	-10.8259
▁35	-10.8266
▁flip	-10.8268
▁sto	-10.8294
lake	-10.8299
▁north	-10.8316
▁flow	-10.8319
Par	-10.8327
01	-10.8338
23	-10.8341
itz	-10.8362
My	-10.8368
madden	-10.838
related	-10.8381
white	-10.8383
?!?!	-10.839
▁tape	-10.8405
▁😂😂😂	-10.8413
wal	-10.8433
▁Ye	-10.8438
DA	-10.8447
weak	-10.8451
▁entertain	-10.8456
ooooo	-10.8478
▁opening	-10.8479
alone	-10.8485
Sport	-10.8486
▁Rock	-10.8497
resident	-10.8504
▁AF	-10.8506
open	-10.851
IGHT	-10.8511
▁Second	-10.8514
▁oppress	-10.8514
Charlotte	-10.8514
zombie	-10.8514
▁economy	-10.8514
▁kitchen	-10.8514
▁nowadays	-10.8514
▁permanent	-10.8514
▁vaccine	-10.8514
▁location	-10.8514
▁precious	-10.8514
▁silver	-10.8514
▁script	-10.8514
▁federal	-10.8514
▁transfer	-10.8514
▁initial	-10.8514
HillaryClinton	-10.8514
▁fiery	-10.8514
▁escape	-10.8514
▁global	-10.8514
▁voting	-10.8514
JUST	-10.8514
Support	-10.8514
▁adopt	-10.8514
▁Almost	-10.8514
Friend	-10.8514
▁reveal	-10.8514
▁surgery	-10.8515
▁section	-10.8515
district	-10.8516
▁roommate	-10.8516
amwriting	-10.8516
▁sensitive	-10.8516
▁POS	-10.8517
▁joyous	-10.8517
▁nerd	-10.8518
▁management	-10.8518
▁handsome	-10.8519
chris	-10.852
▁edge	-10.852
▁fury	-10.852
▁leak	-10.8522
▁embarrassed	-10.8522
▁healthcare	-10.8522
DD	-10.8523
▁tight	-10.8524
▁boat	-10.8524
▁powerful	-10.8525
▁yard	-10.8525
▁poop	-10.8526
▁Long	-10.8528
:30	-10.8528
▁fascinating	-10.853
▁flash	-10.8531
▁rise	-10.8532
▁XD	-10.8535
▁setting	-10.8538
▁outcome	-10.8538
▁demon	-10.8541
▁alot	-10.8542
▁sexist	-10.8544
▁feature	-10.8545
▁lil	-10.8546
▁row	-10.8547
▁matches	-10.8547
▁cheerfully	-10.8548
beat	-10.8557
▁loop	-10.8557
▁Whatever	-10.856
80	-10.8562
▁Baby	-10.857
▁libertarian	-10.8571
▁hardly	-10.8571
▁received	-10.8572
▁Hate	-10.8573
▁buzz	-10.8573
▁Mad	-10.8573
tail	-10.8577
▁cheery	-10.858
▁hunting	-10.8583
▁fruit	-10.8588
Or	-10.8589
▁OC	-10.8593
▁fla	-10.8595
▁pushed	-10.8601
▁someday	-10.8605
▁donate	-10.8608
▁Couldn	-10.8615
▁San	-10.8616
▁ignored	-10.8624
▁kicked	-10.8633
▁combo	-10.8639
▁selling	-10.8645
▁Pan	-10.8647
▁accepted	-10.8661
▁filming	-10.8672
gain	-10.8673
aries	-10.8674
▁reported	-10.8683
BUT	-10.8689
▁HER	-10.8701
RD	-10.8702
▁dollar	-10.8712
▁sport	-10.8726
▁insulting	-10.8728
▁plane	-10.8734
69	-10.8734
bol	-10.8763
Ri	-10.8763
lf	-10.8765
ddy	-10.8771
PS	-10.8774
????	-10.8803
▁Boo	-10.8804
lk	-10.8807
▁motivat	-10.882
▁SC	-10.8826
EX	-10.8832
▁refer	-10.8858
▁Gen	-10.8879
ppreciate	-10.8885
▁Woo	-10.8891
Jack	-10.8891
Jon	-10.8897
$	-10.8901
cream	-10.8904
What	-10.8908
social	-10.891
board	-10.8914
born	-10.8919
▁vid	-10.8938
ody	-10.8948
▁lame	-10.8952
iness	-10.8968
poor	-10.8981
Sha	-10.8993
▁sudden	-10.9017
asty	-10.9023
24	-10.9023
▁object	-10.9037
courage	-10.9039
▁occasion	-10.9039
▁clarify	-10.904
▁exploit	-10.904
conspiracy	-10.904
university	-10.904
▁Birthday	-10.904
▁Detroit	-10.904
▁Stupid	-10.904
▁compliment	-10.904
▁encounter	-10.904
▁exclusive	-10.904
▁identify	-10.904
▁knife	-10.904
▁necessarily	-10.904
▁remotely	-10.904
▁schedule	-10.904
▁volunteer	-10.904
pessimist	-10.904
▁method	-10.904
▁French	-10.904
▁silent	-10.904
▁computer	-10.904
▁ultimate	-10.904
▁nurse	-10.904
▁coworker	-10.904
Texans	-10.904
▁oppose	-10.904
shield	-10.904
▁marry	-10.904
▁console	-10.904
▁responsibility	-10.904
Obama	-10.904
▁inspired	-10.904
▁neighborhood	-10.9041
▁chief	-10.9041
▁champ	-10.9041
▁criticism	-10.9041
mirth	-10.9041
▁launch	-10.9041
Scott	-10.9042
▁addition	-10.9042
▁subscribe	-10.9042
▁brows	-10.9042
ference	-10.9044
▁request	-10.9045
▁Park	-10.9045
▁reopen	-10.9045
▁President	-10.9046
disabled	-10.9046
▁legitimate	-10.9046
▁Human	-10.9047
▁Hoping	-10.9047
▁Aww	-10.9047
▁delusional	-10.9049
hope	-10.9049
▁wheel	-10.9049
▁insight	-10.9052
▁bread	-10.9053
TED	-10.9053
▁trap	-10.9054
▁boots	-10.9054
Face	-10.9056
▁Paul	-10.9056
▁Oof	-10.9057
▁stopping	-10.9058
▁trailer	-10.9061
▁horrid	-10.9066
▁gf	-10.9069
▁fallen	-10.907
Bot	-10.9073
▁parties	-10.9086
▁saving	-10.9086
▁Dear	-10.909
/10	-10.9091
itting	-10.9095
Oh	-10.9098
▁Suck	-10.9098
nstant	-10.911
▁bench	-10.911
▁gaming	-10.9112
▁shave	-10.9114
▁pity	-10.9117
▁PS	-10.9119
▁Free	-10.9131
▁hardest	-10.9132
▁pretending	-10.9137
▁confirmed	-10.9151
▁doom	-10.9153
▁lab	-10.9153
▁2017	-10.9158
▁slid	-10.9159
▁$2	-10.9161
will	-10.9163
usa	-10.9164
▁xD	-10.9165
▁lord	-10.9174
LES	-10.9174
▁murdered	-10.9183
▁normally	-10.9184
▁blocked	-10.9188
▁reminder	-10.9191
▁poll	-10.9193
▁Feel	-10.9211
kik	-10.922
▁hating	-10.9222
gag	-10.9235
▁Thought	-10.9237
▁yea	-10.9252
step	-10.9263
▁dev	-10.9266
▁mic	-10.9271
▁logical	-10.9271
▁soooo	-10.9276
iel	-10.9293
▁ordered	-10.9295
▁Live	-10.9299
▁22	-10.9302
venge	-10.9306
▁signing	-10.9315
▁Gett	-10.932
▁cal	-10.9326
▁Use	-10.9332
gram	-10.9346
▁sue	-10.9349
▁***	-10.9366
▁era	-10.9367
OOK	-10.9379
EAR	-10.9403
▁Ahhh	-10.9407
ASS	-10.9431
ella	-10.9445
▁lean	-10.9457
despair	-10.9461
🙄	-10.9461
😊	-10.9461
business	-10.9462
furious	-10.9462
Time	-10.9462
film	-10.9462
🤔	-10.9463
beautiful	-10.9463
strong	-10.9466
Man	-10.9466
delight	-10.9469
style	-10.9469
young	-10.9472
hhhhh	-10.9477
about	-10.9477
▁prob	-10.9481
punk	-10.9488
▁Min	-10.949
joke	-10.9529
▁Add	-10.9532
▁Hmm	-10.9538
▁smash	-10.955
▁spoil	-10.955
▁discover	-10.955
▁Gra	-10.9564
▁via	-10.9569
bag	-10.9576
▁circ	-10.9577
▁500	-10.9581
▁lip	-10.9582
🏼	-10.9595
▁LMAO	-10.9596
▁competition	-10.9596
▁conclusion	-10.9596
▁horribly	-10.9596
▁irrelevant	-10.9596
▁scratch	-10.9596
▁squad	-10.9596
▁square	-10.9596
▁swallow	-10.9596
▁tournament	-10.9596
🎉	-10.9596
entitled	-10.9596
▁GOOD	-10.9596
▁downvoting	-10.9596
▁vomit	-10.9596
▁Dallas	-10.9596
hustle	-10.9596
inspiring	-10.9596
autumn	-10.9596
▁Korea	-10.9596
▁maintain	-10.9596
▁harsh	-10.9596
▁housing	-10.9596
▁virus	-10.9596
▁Otherwise	-10.9596
▁REALLY	-10.9596
▁pleasant	-10.9596
▁strict	-10.9596
fraud	-10.9596
▁technically	-10.9596
▁storm	-10.9596
▁bait	-10.9597
Peace	-10.9597
▁defeat	-10.9597
▁stunning	-10.9597
▁relatable	-10.9598
▁cult	-10.9598
▁straw	-10.9598
▁objective	-10.9598
bliss	-10.9599
▁task	-10.9599
▁peak	-10.96
▁Ireland	-10.9601
▁frank	-10.9601
lord	-10.9601
▁meaningless	-10.9601
▁logo	-10.9602
▁combat	-10.9604
▁coward	-10.9604
▁pump	-10.9604
appeal	-10.9605
▁expression	-10.9605
▁fancy	-10.9606
stairs	-10.9607
▁homo	-10.9607
▁Germany	-10.9607
▁fade	-10.9607
▁Again	-10.9609
▁laid	-10.961
▁.@	-10.9611
▁patch	-10.9612
▁studie	-10.9612
▁attend	-10.9613
▁gig	-10.9614
▁duck	-10.9614
▁loose	-10.9615
▁deny	-10.9616
lept	-10.9616
irty	-10.9622
▁bash	-10.9623
▁THEY	-10.9625
sigh	-10.9629
▁outbreak	-10.963
▁station	-10.9631
▁Follow	-10.9631
▁painting	-10.9633
▁intense	-10.9637
▁former	-10.9637
tired	-10.964
▁epidemic	-10.9647
Daily	-10.9651
▁signal	-10.9652
udge	-10.9654
▁whoever	-10.9657
▁Hmmm	-10.9658
▁cutest	-10.9659
RT	-10.9659
▁desire	-10.9671
▁international	-10.9671
▁passion	-10.9672
▁healing	-10.9672
60	-10.9674
ntil	-10.968
▁DI	-10.968
poli	-10.9681
▁spelling	-10.9685
▁Less	-10.9685
▁coin	-10.9687
addy	-10.97
▁released	-10.97
▁semi	-10.9701
▁cringey	-10.971
▁charged	-10.9715
▁Spa	-10.9733
▁joined	-10.9737
▁carrie	-10.9739
▁fixed	-10.9753
76	-10.9754
goals	-10.9761
▁sooner	-10.9763
▁Young	-10.9765
quest	-10.9772
▁practical	-10.9773
▁Kind	-10.9791
ement	-10.9793
▁freaked	-10.9794
cket	-10.9794
▁Send	-10.9796
▁Lin	-10.9804
95	-10.9805
▁fed	-10.9808
▁reminded	-10.9811
quit	-10.982
put	-10.9839
▁reporting	-10.9842
facebook	-10.9872
▁kit	-10.9877
▁Ooh	-10.9895
utch	-10.9898
▁wasted	-10.9905
▁sens	-10.992
▁Comp	-10.9921
duction	-10.9928
▁format	-10.9936
▁sometime	-10.9942
78	-10.9966
▁determine	-11.0027
egan	-11.0028
comedy	-11.0049
promise	-11.005
maybe	-11.0051
Just	-11.0052
speak	-11.0056
Star	-11.0057
after	-11.0066
shake	-11.0066
mixed	-11.0073
rug	-11.0076
wise	-11.0078
▁tie	-11.0079
base	-11.0089
▁cure	-11.0093
▁Bla	-11.0116
xx	-11.0121
paid	-11.0123
▁guilt	-11.016
▁genuine	-11.0161
▁stole	-11.017
-0	-11.0171
Real	-11.0172
▁connect	-11.0175
▁31	-11.0176
▁multi	-11.0183
melancholy	-11.0184
▁Disgusting	-11.0184
▁Excellent	-11.0184
▁Luckily	-11.0184
▁THANK	-11.0184
▁buried	-11.0184
▁identity	-11.0184
▁impression	-11.0184
▁injuries	-11.0184
▁optimistic	-11.0184
▁resent	-11.0184
▁stadium	-11.0184
▁symptom	-11.0184
▁unpopular	-11.0184
▁vaccinate	-11.0184
▁vehicle	-11.0184
conscious	-11.0184
▁drown	-11.0184
▁emoji	-11.0184
▁feminist	-11.0184
▁occur	-11.0184
▁register	-11.0184
▁relief	-11.0184
▁sibling	-11.0184
▁worship	-11.0184
psychopath	-11.0184
▁disaster	-11.0184
▁Google	-11.0184
▁Lucky	-11.0184
▁politician	-11.0184
▁envy	-11.0184
▁Earth	-11.0184
▁promote	-11.0184
▁satire	-11.0184
▁wound	-11.0184
▁witness	-11.0184
▁Truly	-11.0184
▁Depend	-11.0184
▁Anything	-11.0184
▁Trust	-11.0184
▁spider	-11.0184
▁aspect	-11.0184
▁region	-11.0184
▁Three	-11.0184
ATION	-11.0184
▁autism	-11.0184
▁blew	-11.0184
▁toddler	-11.0184
▁firm	-11.0184
▁lmfao	-11.0184
raising	-11.0184
▁ordinary	-11.0184
▁river	-11.0185
▁rail	-11.0185
▁unexpected	-11.0185
▁pocket	-11.0185
▁consent	-11.0185
▁Instagram	-11.0185
Brown	-11.0185
ION	-11.0185
▁debt	-11.0186
Movie	-11.0186
▁Grow	-11.0186
▁breed	-11.0187
▁harassment	-11.0188
▁bullet	-11.0188
▁gear	-11.0189
▁TIL	-11.0189
▁native	-11.019
▁illness	-11.019
▁spray	-11.019
ini	-11.0191
▁DID	-11.0192
▁headache	-11.0192
proving	-11.0193
▁reverse	-11.0195
▁crop	-11.0195
▁flight	-11.0196
▁pup	-11.0197
payment	-11.0198
▁😤	-11.0201
▁WIN	-11.0201
david	-11.0202
▁cell	-11.0203
▁glasses	-11.0204
▁WAS	-11.0206
▁isolate	-11.0208
▁exposed	-11.0209
▁obsessed	-11.021
change	-11.0214
▁sight	-11.0215
▁amazed	-11.0215
▁Asian	-11.0216
▁Bring	-11.0218
▁Came	-11.0219
▁arrested	-11.0221
▁flame	-11.0225
▁chirp	-11.023
▁Angel	-11.0231
▁bout	-11.0236
organ	-11.0238
▁tf	-11.0239
▁nope	-11.024
▁mutual	-11.0241
cide	-11.0246
▁Feeling	-11.0248
▁rarely	-11.0249
▁GM	-11.0258
▁lib	-11.0262
▁input	-11.0264
▁legally	-11.0267
borderline	-11.0294
They	-11.0295
▁wipe	-11.0298
▁None	-11.0302
ologist	-11.0304
▁reached	-11.0306
independent	-11.0313
▁pok	-11.0314
▁hall	-11.0314
pop	-11.032
▁Went	-11.0325
How	-11.0338
blin	-11.0353
yyyy	-11.0356
▁lied	-11.0358
▁raped	-11.037
▁democrat	-11.0371
Con	-11.0376
42	-11.0394
▁Lov	-11.0395
▁sucked	-11.0409
▁lit	-11.0418
RL	-11.0474
▁playoff	-11.0501
dad	-11.0534
cutting	-11.0542
roid	-11.055
ison	-11.0568
imi	-11.0576
▁300	-11.06
gun	-11.0614
▁Whi	-11.0622
sually	-11.0627
HH	-11.0628
week	-11.0636
▁starter	-11.065
BR	-11.0657
stress	-11.0663
▁Indian	-11.0672
2017	-11.0674
grateful	-11.0675
delicious	-11.0675
movie	-11.0676
❤️	-11.0677
upset	-11.0677
child	-11.0677
burning	-11.0678
reason	-11.0678
▁assist	-11.0679
▁predict	-11.0687
tears	-11.0699
HL	-11.0709
bright	-11.0709
lee	-11.0725
▁Bear	-11.0729
Life	-11.073
56	-11.0741
▁26	-11.0757
▁bf	-11.076
▁exhaust	-11.0764
▁guarantee	-11.0764
▁Inter	-11.0776
▁orange	-11.0792
0000000000000000	-11.0804
▁chick	-11.0806
▁suppl	-11.0807
▁disrespect	-11.0808
▁psycho	-11.0809
‍	-11.0809
▁automatic	-11.0809
▁satisfy	-11.0809
COVID	-11.0809
Wednesday	-11.0809
mentalhealth	-11.0809
▁Amazon	-11.0809
▁Democrat	-11.0809
▁Haizhu	-11.0809
▁January	-11.0809
▁Pizza	-11.0809
▁Surprise	-11.0809
▁advance	-11.0809
▁breakfast	-11.0809
▁brigad	-11.0809
▁circumstances	-11.0809
▁coincidence	-11.0809
▁companies	-11.0809
▁frustrated	-11.0809
▁happily	-11.0809
▁industry	-11.0809
▁investigation	-11.0809
▁patience	-11.0809
▁provoke	-11.0809
▁smoking	-11.0809
▁tragedy	-11.0809
Thursday	-11.0809
▁WILL	-11.0809
▁abusive	-11.0809
▁exciting	-11.0809
▁implying	-11.0809
▁purchase	-11.0809
▁rabid	-11.0809
▁Cakeday	-11.0809
▁central	-11.0809
▁flavor	-11.0809
▁potato	-11.0809
▁vacation	-11.0809
psychology	-11.0809
▁statistic	-11.0809
▁KNOW	-11.0809
▁TIME	-11.0809
▁approve	-11.0809
▁combined	-11.0809
▁filth	-11.0809
▁salary	-11.0809
▁thumb	-11.0809
graduate	-11.0809
▁taught	-11.0809
advisor	-11.0809
▁queue	-11.0809
▁refund	-11.0809
▁prime	-11.0809
▁snack	-11.0809
▁Death	-11.0809
▁praise	-11.0809
▁Learn	-11.0809
▁Tbh	-11.0809
▁United	-11.0809
neath	-11.0809
▁pipe	-11.0809
▁liking	-11.0809
▁ruling	-11.0809
Problem	-11.0809
▁Queen	-11.081
NEW	-11.081
London	-11.081
▁NHL	-11.081
▁sharp	-11.081
irritati	-11.081
▁grasp	-11.081
▁alien	-11.0811
▁reduce	-11.0811
▁appropriate	-11.0811
▁honey	-11.0812
▁bleed	-11.0812
▁Left	-11.0812
▁Mexico	-11.0812
▁junk	-11.0813
kikme	-11.0813
▁Know	-11.0814
▁progressive	-11.0814
▁BF	-11.0815
▁jaw	-11.0815
▁began	-11.0815
rrrr	-11.0816
afflict	-11.0817
▁Things	-11.0817
▁rewatch	-11.0817
origin	-11.0818
▁creative	-11.0818
News	-11.082
▁Completely	-11.082
▁outsiders	-11.0821
▁iPhone	-11.0821
▁comeback	-11.0823
▁crew	-11.0823
▁friendship	-11.0824
▁owe	-11.0826
▁hack	-11.0828
Pro	-11.0829
▁Fox	-11.083
raging	-11.083
informed	-11.0833
graph	-11.0834
▁sunk	-11.084
▁disappointment	-11.0842
▁growth	-11.0844
▁latest	-11.0844
▁grass	-11.0849
▁glorious	-11.0849
▁righteous	-11.0849
story	-11.085
▁NC	-11.0852
▁dick	-11.0852
Joe	-11.0853
▁sweaty	-11.0853
▁grave	-11.0856
▁naturally	-11.0861
▁badass	-11.0862
eee	-11.0863
▁documentary	-11.0868
▁discouraged	-11.0871
▁homeless	-11.0882
bomb	-11.0882
Bri	-11.0882
▁craft	-11.0885
▁realised	-11.0887
▁yelling	-11.0887
▁socialist	-11.0892
▁proven	-11.0893
▁addiction	-11.0893
▁casual	-11.0906
▁remov	-11.0907
▁gosh	-11.0909
▁praying	-11.0914
▁provided	-11.0916
▁required	-11.0917
ibly	-11.0918
▁oddly	-11.0926
▁breathing	-11.0931
cock	-11.0938
▁insist	-11.0939
▁Bay	-11.0941
▁smaller	-11.0945
😂😂😂😂	-11.095
cape	-11.0956
▁wire	-11.0962
ppy	-11.0966
If	-11.0971
▁assumed	-11.0973
▁outfit	-11.0976
▁boost	-11.0977
!<	-11.0978
▁DC	-11.0978
▁Jan	-11.0981
GH	-11.0982
▁prayer	-11.0986
▁Mid	-11.1018
deal	-11.1025
stick	-11.1028
▁TD	-11.1031
▁Prove	-11.1042
▁Eat	-11.1046
▁goat	-11.1053
▁spec	-11.106
▁Far	-11.1074
dragon	-11.1087
tries	-11.109
speechless	-11.1104
TOP	-11.1121
most	-11.1162
Social	-11.1167
Off	-11.1168
full	-11.1204
▁sentiment	-11.1212
OOOOO	-11.1222
▁prop	-11.1227
uge	-11.1248
fall	-11.1275
▁arse	-11.1279
▁stan	-11.1323
baby	-11.1325
John	-11.1341
wood	-11.1341
😢	-11.1341
‘	-11.1341
alarm	-11.1343
answer	-11.1343
front	-11.1348
healthy	-11.1352
ological	-11.1356
▁stepp	-11.1359
blessing	-11.1368
Phil	-11.1378
fight	-11.1381
easy	-11.1384
BBC	-11.1386
box	-11.1399
fact	-11.1406
armed	-11.1429
£	-11.143
intimidate	-11.1431
crap	-11.1439
▁Oooo	-11.1463
▁delusion	-11.1464
▁Europe	-11.1468
▁document	-11.1474
▁MUCH	-11.1475
▁NEVER	-11.1475
▁analogy	-11.1475
▁climate	-11.1475
▁climb	-11.1475
▁comrade	-11.1475
▁confusing	-11.1475
▁confusion	-11.1475
▁convenient	-11.1475
▁evolution	-11.1475
▁frustration	-11.1475
▁incident	-11.1475
▁intelligent	-11.1475
▁journalist	-11.1475
▁jovial	-11.1475
▁obnoxious	-11.1475
▁possibility	-11.1475
▁sandwich	-11.1475
▁struggling	-11.1475
▁terrific	-11.1475
▁tremendous	-11.1475
▁athlete	-11.1475
▁trauma	-11.1475
▁ideology	-11.1475
▁rookie	-11.1475
▁breast	-11.1475
▁intended	-11.1475
▁streak	-11.1475
▁teenager	-11.1475
ibility	-11.1475
▁crypto	-11.1475
▁Disney	-11.1475
▁snake	-11.1476
▁affair	-11.1476
▁Easy	-11.1476
▁depth	-11.1476
▁fetish	-11.1476
▁naked	-11.1476
▁paragraph	-11.1476
HHHH	-11.1476
▁Utah	-11.1476
ghast	-11.1476
▁detain	-11.1476
▁vagina	-11.1476
▁dozen	-11.1476
▁compensation	-11.1476
▁expectations	-11.1476
▁strategy	-11.1476
▁Green	-11.1477
▁translate	-11.1477
▁goddamn	-11.1477
▁shark	-11.1477
▁discrimination	-11.1477
▁inevitable	-11.1477
▁exchange	-11.1477
Truth	-11.1477
Music	-11.1478
▁mindset	-11.1478
▁pillow	-11.1478
▁bedroom	-11.1478
▁kitty	-11.1478
▁baseball	-11.1478
▁hmm	-11.1478
▁Monday	-11.1478
▁RIGHT	-11.1479
▁unbelievable	-11.1479
▁Remov	-11.148
▁route	-11.148
▁punishment	-11.148
▁flex	-11.148
▁offseason	-11.148
▁digging	-11.1481
▁90%	-11.1481
▁underrated	-11.1481
▁29	-11.1482
▁seven	-11.1482
▁Mother	-11.1482
▁funding	-11.1483
russia	-11.1484
know	-11.1485
Wild	-11.149
ashington	-11.1491
▁gem	-11.1493
▁beast	-11.1493
▁shill	-11.1493
▁stance	-11.1493
USA	-11.1494
▁stats	-11.1496
▁winner	-11.1496
88	-11.1498
▁lick	-11.1499
lion	-11.15
▁exception	-11.1502
▁plug	-11.1504
▁Fake	-11.1504
▁armor	-11.1504
▁worthless	-11.1505
▁pub	-11.1507
▁*[	-11.1509
▁vile	-11.1512
▁salty	-11.1513
▁supportive	-11.1515
▁guaranteed	-11.1523
Donald	-11.1527
▁discovered	-11.153
sembl	-11.1535
▁blown	-11.1546
jan	-11.1553
RED	-11.1554
yoga	-11.1573
▁Shouldn	-11.1582
▁rad	-11.1586
▁belly	-11.1598
▁Head	-11.1606
▁deeply	-11.1608
▁toast	-11.1618
▁FO	-11.1619
Shi	-11.1626
▁hella	-11.1639
lab	-11.1644
yyy	-11.1654
▁sav	-11.1679
▁Sir	-11.1682
▁defender	-11.1687
olo	-11.1707
eye	-11.1732
ailed	-11.1736
TING	-11.1752
ripping	-11.1774
true	-11.1787
mean	-11.1799
Love	-11.1838
▁magical	-11.1843
tial	-11.1901
stressed	-11.1911
oooooo	-11.1944
OOOOOOOO	-11.1972
lassic	-11.1981
OLD	-11.2052
uke	-11.2052
writing	-11.2053
😩	-11.2055
😍	-11.2055
racism	-11.2056
challenge	-11.2056
science	-11.2056
America	-11.2056
Thank	-11.2057
course	-11.2057
death	-11.2058
▁mac	-11.2069
▁loyal	-11.2084
Fuck	-11.2087
terrorist	-11.2095
▁chin	-11.2106
▁custom	-11.212
▁polite	-11.2125
cake	-11.2127
▁arrest	-11.2145
case	-11.2148
▁Quit	-11.2166
▁gloom	-11.2168
▁utter	-11.2168
▁constant	-11.2169
solate	-11.2179
▁differ	-11.2185
▁physi	-11.2189
misogyn	-11.2189
phobia	-11.219
magazine	-11.219
oftheday	-11.219
▁Beijing	-11.219
▁Hubei	-11.219
▁communism	-11.219
▁communist	-11.219
▁competitive	-11.219
▁eliminate	-11.219
▁encouraging	-11.219
▁excitement	-11.219
▁exhilaration	-11.219
▁festival	-11.219
▁genocide	-11.219
▁incorrect	-11.219
▁infuriating	-11.219
▁instinct	-11.219
▁levity	-11.219
▁license	-11.219
▁miracle	-11.219
▁narrative	-11.219
▁possess	-11.219
▁primary	-11.219
▁terribly	-11.219
▁Canadian	-11.219
▁NFL	-11.219
▁bubble	-11.219
▁conduct	-11.219
▁incense	-11.219
▁villain	-11.219
Empire	-11.219
▁Celtic	-11.219
▁whatsoever	-11.219
▁ISIS	-11.219
cycling	-11.219
igator	-11.219
▁November	-11.219
▁ripped	-11.219
▁soldiers	-11.219
▁audio	-11.219
▁cultural	-11.219
▁medication	-11.219
▁torture	-11.219
▁edgy	-11.219
▁animation	-11.219
▁colour	-11.219
▁SHIT	-11.219
▁Talent	-11.219
▁drove	-11.219
Little	-11.219
▁prick	-11.219
interpret	-11.219
activis	-11.219
▁empathy	-11.219
▁choke	-11.219
▁Next	-11.219
▁smack	-11.219
▁Dream	-11.219
mufc	-11.219
UCK	-11.219
▁roster	-11.219
Houston	-11.219
▁smug	-11.219
▁grocer	-11.219
▁embarrassment	-11.2191
▁sulk	-11.2191
▁afterwards	-11.2191
▁masculinity	-11.2191
▁York	-11.2191
chapter	-11.2191
▁Henan	-11.2191
Family	-11.2191
WWE	-11.2191
▁HELL	-11.2191
▁slavery	-11.2192
Jesus	-11.2192
▁budget	-11.2192
▁occasionally	-11.2192
▁Everybody	-11.2192
▁shook	-11.2192
▁Trans	-11.2192
▁guide	-11.2192
▁coast	-11.2192
▁robot	-11.2193
▁10/10	-11.2193
▁misread	-11.2193
Orange	-11.2193
▁shutdown	-11.2193
▁fiction	-11.2193
▁caption	-11.2193
▁Somebody	-11.2193
▁rapper	-11.2193
▁Laugh	-11.2193
▁bound	-11.2194
▁tube	-11.2194
▁huff	-11.2194
▁desk	-11.2194
▁perform	-11.2194
▁infected	-11.2195
▁print	-11.2195
▁clueless	-11.2195
▁obsession	-11.2195
struck	-11.2195
▁80%	-11.2195
James	-11.2196
▁WHO	-11.2197
capita	-11.2198
▁spring	-11.2198
▁kink	-11.2199
▁connection	-11.22
▁duty	-11.22
▁clock	-11.22
▁WANT	-11.2201
▁bite	-11.2203
▁recall	-11.2204
▁WOR	-11.2205
islam	-11.2209
▁inches	-11.2209
ICK	-11.2209
▁Kill	-11.2209
▁Party	-11.221
▁ego	-11.221
▁attracted	-11.2213
kra	-11.2213
▁March	-11.2214
▁chain	-11.2216
▁rapist	-11.2216
Char	-11.2218
▁48	-11.2219
▁temper	-11.2224
▁instagram	-11.2225
▁Bull	-11.2226
keep	-11.2229
▁sack	-11.2236
▁nah	-11.2236
intimidated	-11.2238
▁gleeful	-11.2239
▁theater	-11.224
▁throughout	-11.224
Care	-11.2241
▁correction	-11.2241
▁exhausted	-11.2242
uous	-11.2244
▁enjoyable	-11.2244
▁Low	-11.2246
▁Four	-11.2247
▁smashed	-11.2249
lemon	-11.2251
▁loan	-11.2258
▁involve	-11.2261
▁admire	-11.2267
▁snu	-11.2268
▁exit	-11.2269
▁Mate	-11.2272
archy	-11.2275
▁27	-11.2275
▁haters	-11.2277
▁hopeful	-11.2279
▁army	-11.2286
▁distract	-11.2286
▁Act	-11.2298
hyper	-11.23
▁OT	-11.2307
urban	-11.2307
adder	-11.2309
▁Whoa	-11.231
GR	-11.2316
timate	-11.2318
▁mr	-11.2327
▁bun	-11.233
divide	-11.2359
ITE	-11.2366
365	-11.2424
▁shooter	-11.2434
onic	-11.2479
▁resist	-11.248
fume	-11.2488
-20	-11.25
▁TOO	-11.2518
▁Sea	-11.256
▁pose	-11.2564
▁depend	-11.263
▁embrace	-11.2635
▁Wall	-11.2673
▁NI	-11.2719
emi	-11.2727
▁ideal	-11.2742
comfort	-11.2824
protest	-11.2825
peace	-11.2826
future	-11.2826
support	-11.2826
>	-11.2826
paper	-11.2826
something	-11.2826
Good	-11.2827
feels	-11.2828
thoughts	-11.2828
sorry	-11.2831
cifi	-11.2838
pack	-11.2839
guy	-11.2843
when	-11.2845
▁shove	-11.2845
dead	-11.2851
election	-11.2853
wash	-11.2856
▁poison	-11.2897
▁blam	-11.29
▁elect	-11.291
▁Whe	-11.291
Well	-11.2912
Live	-11.2914
OOO	-11.2916
▁prior	-11.2928
ife	-11.2937
▁dirt	-11.2938
does	-11.294
fill	-11.2949
legitimately	-11.295
ecurity	-11.2955
▁accomplish	-11.2956
▁Person	-11.2958
significant	-11.2959
▁California	-11.2959
▁championship	-11.2959
▁communities	-11.2959
▁construct	-11.2959
▁counsel	-11.2959
▁dynamic	-11.2959
▁efficient	-11.2959
▁exercise	-11.2959
▁serving	-11.2959
▁stereotype	-11.2959
▁unacceptable	-11.2959
▁unattractive	-11.2959
▁underestimate	-11.2959
▁withdrawal	-11.2959
▁Arizona	-11.2959
▁Turkey	-11.2959
▁grief	-11.2959
▁hesitate	-11.2959
▁judging	-11.2959
▁prospect	-11.2959
▁chemist	-11.2959
▁refreshing	-11.2959
▁unfair	-11.2959
▁bloom	-11.2959
▁client	-11.2959
▁flashbacks	-11.2959
Terror	-11.2959
snowflake	-11.2959
▁awhile	-11.2959
▁heartbreaking	-11.2959
▁Office	-11.2959
▁Woah	-11.2959
▁bonus	-11.2959
▁giggle	-11.2959
▁entered	-11.2959
▁shatter	-11.2959
texans	-11.2959
▁complex	-11.2959
▁Sigh	-11.2959
customerservice	-11.2959
▁HIM	-11.2959
▁element	-11.2959
▁rural	-11.2959
guitar	-11.2959
▁Bowl	-11.2959
▁tolerance	-11.2959
▁diagnosed	-11.2959
▁Besides	-11.2959
▁elite	-11.2959
workplace	-11.2959
▁scoring	-11.2959
▁returnees	-11.296
Believe	-11.296
▁funeral	-11.296
▁heyday	-11.296
▁float	-11.296
▁purple	-11.296
▁celebrity	-11.296
▁replies	-11.296
▁interaction	-11.296
▁hiding	-11.296
▁chocolate	-11.2961
▁Point	-11.2961
inspire	-11.2961
▁Town	-11.2961
▁Dark	-11.2961
▁shopping	-11.2961
▁ethic	-11.2962
▁accomplishment	-11.2962
▁chaos	-11.2962
▁supplies	-11.2962
▁atheist	-11.2962
▁EVERY	-11.2963
▁SOME	-11.2964
▁Story	-11.2964
▁shred	-11.2964
Sleep	-11.2964
▁retirement	-11.2964
▁neat	-11.2965
xcuse	-11.2965
▁stink	-11.2965
▁Doctor	-11.2965
▁gro	-11.2966
▁residents	-11.2966
▁collection	-11.2966
▁elsewhere	-11.2967
▁controlled	-11.2967
Bridget	-11.2967
▁retail	-11.2967
haircut	-11.2967
nudes	-11.2968
▁shade	-11.2968
▁devil	-11.2968
▁bond	-11.2969
Power	-11.2969
▁acid	-11.2969
About	-11.2969
▁Step	-11.297
▁downtown	-11.2971
▁affection	-11.2971
▁labor	-11.2971
▁thru	-11.2973
▁recommendation	-11.2973
91	-11.2974
▁fence	-11.2975
▁grant	-11.2976
▁rose	-11.2976
▁thick	-11.2977
▁despise	-11.2977
▁spare	-11.2979
▁unlikely	-11.2979
▁darkness	-11.2979
unning	-11.298
▁NOW	-11.298
▁cough	-11.2981
▁couch	-11.2981
▁overrated	-11.2984
▁max	-11.2984
▁Gao	-11.2985
▁yep	-11.2987
last	-11.2988
punny	-11.2991
▁engineer	-11.2992
Lady	-11.2995
Matt	-11.2997
▁forbid	-11.2999
▁Want	-11.3002
▁spine	-11.3003
▁coke	-11.3005
▁Roman	-11.3006
▁previously	-11.3009
▁foundation	-11.3015
▁glow	-11.3023
▁spoiled	-11.3023
▁eaten	-11.3025
ARE	-11.3027
▁boil	-11.3031
▁passes	-11.3032
▁gray	-11.3043
▁Fall	-11.3045
▁urge	-11.3046
affle	-11.3051
▁bio	-11.3052
▁Sex	-11.3053
▁drain	-11.3053
THE	-11.3058
▁Joke	-11.3058
▁shovel	-11.3074
matt	-11.3103
▁realiz	-11.3116
▁Amen	-11.3126
UFC	-11.3144
Disc	-11.3148
200	-11.315
▁educat	-11.3154
▁hung	-11.3179
▁Fact	-11.3217
▁leftist	-11.323
▁quot	-11.323
▁hun	-11.3287
▁acknowledge	-11.3308
▁continu	-11.3364
70%	-11.3366
tually	-11.3464
itten	-11.3469
▁Base	-11.3473
😂😂	-11.3484
radio	-11.3492
mindful	-11.3579
jar	-11.3599
▁Xi	-11.3617
▁comb	-11.3648
leader	-11.3655
reddit	-11.3656
🙏	-11.3657
horrific	-11.3658
twitter	-11.3658
shirt	-11.3659
everything	-11.366
morning	-11.366
little	-11.366
honest	-11.366
Why	-11.366
sweet	-11.3661
which	-11.3661
damn	-11.3662
Talk	-11.3663
market	-11.3665
▁400	-11.3665
father	-11.3669
Like	-11.3675
▁pale	-11.3676
47	-11.3692
pray	-11.3693
37	-11.3698
Will	-11.3703
Sky	-11.3705
▁function	-11.3718
Out	-11.3719
gym	-11.3722
▁strip	-11.3742
▁amaze	-11.3748
▁censor	-11.3748
▁whil	-11.3777
▁EVER	-11.379
▁applaud	-11.3792
▁domestic	-11.3792
▁livestream	-11.3792
▁pronounc	-11.3792
▁scientist	-11.3792
atisfaction	-11.3792
▁December	-11.3792
▁Different	-11.3792
▁FTFY	-11.3792
▁Incredibl	-11.3792
▁Perfect	-11.3792
▁Regardless	-11.3792
▁Republican	-11.3792
▁Ridiculous	-11.3792
▁Vegas	-11.3792
▁aesthetic	-11.3792
▁appointment	-11.3792
▁arrogant	-11.3792
▁cigarette	-11.3792
▁clothing	-11.3792
▁complicated	-11.3792
▁contradict	-11.3792
▁dismiss	-11.3792
▁franchise	-11.3792
▁immense	-11.3792
▁immigration	-11.3792
▁intelligence	-11.3792
▁laptop	-11.3792
▁legislat	-11.3792
▁mediocre	-11.3792
▁misleading	-11.3792
▁participat	-11.3792
▁passenger	-11.3792
▁primari	-11.3792
▁privilege	-11.3792
▁republican	-11.3792
▁romantic	-11.3792
▁unnecessary	-11.3792
▁unreasonable	-11.3792
▁valuable	-11.3792
▁volume	-11.3792
insomnia	-11.3792
whisper	-11.3792
▁crisis	-11.3792
▁investigate	-11.3792
▁penalty	-11.3792
▁popcorn	-11.3792
▁relatively	-11.3792
▁Church	-11.3792
▁fulfill	-11.3792
▁stroke	-11.3792
chronic	-11.3792
▁discord	-11.3792
▁generic	-11.3792
▁yuan	-11.3792
▁denial	-11.3792
▁steak	-11.3792
muslim	-11.3792
nutrition	-11.3792
▁Wrong	-11.3792
▁expand	-11.3792
▁fortune	-11.3792
▁clarification	-11.3792
▁inherent	-11.3792
▁abroad	-11.3792
▁bodies	-11.3792
▁dragged	-11.3792
▁Syria	-11.3792
▁crappy	-11.3792
▁yikes	-11.3792
▁homophobic	-11.3792
▁funnier	-11.3792
▁starving	-11.3792
▁fought	-11.3792
▁2-3	-11.3793
▁scumbag	-11.3793
▁significantly	-11.3793
▁hardcore	-11.3793
▁typo	-11.3793
▁leaf	-11.3793
▁sunset	-11.3793
▁Magic	-11.3793
▁ASAP	-11.3793
▁convert	-11.3793
▁forgotten	-11.3793
▁clapped	-11.3793
▁Middle	-11.3793
▁planned	-11.3793
▁radical	-11.3794
▁Season	-11.3794
ipolar	-11.3794
▁align	-11.3794
▁lyric	-11.3794
irsty	-11.3794
▁midnight	-11.3794
▁backwards	-11.3794
▁vague	-11.3794
atleast	-11.3794
▁nuclear	-11.3794
▁committed	-11.3795
▁Half	-11.3795
▁warriors	-11.3795
▁chips	-11.3795
▁feedback	-11.3795
▁Fire	-11.3795
jazz	-11.3795
▁awake	-11.3795
▁percent	-11.3796
▁timing	-11.3796
▁airport	-11.3796
▁Smh	-11.3796
▁resentment	-11.3797
▁dramatic	-11.3797
▁juice	-11.3797
▁underwear	-11.3797
▁Brother	-11.3797
hillary	-11.3797
▁flop	-11.3797
▁selection	-11.3798
▁daddy	-11.3798
▁swim	-11.3799
▁relat	-11.3799
▁Umm	-11.3799
▁meaningful	-11.3799
Proud	-11.3799
▁sunny	-11.3799
Uncle	-11.3799
▁mort	-11.38
▁WTF	-11.38
▁assign	-11.38
stood	-11.38
▁improvement	-11.3801
▁panel	-11.3803
▁witch	-11.3803
▁coverage	-11.3803
▁rocket	-11.3803
▁50%	-11.3804
▁voters	-11.3804
▁hence	-11.3804
▁naive	-11.3804
▁guest	-11.3806
▁flowers	-11.3806
▁hint	-11.3808
▁pile	-11.3809
▁consideration	-11.3809
▁sexuality	-11.381
▁socialism	-11.381
▁vast	-11.381
▁acceptable	-11.3811
▁Uber	-11.3812
▁download	-11.3813
▁Name	-11.3813
obi	-11.3813
behappy	-11.3814
▁micro	-11.3815
▁Hold	-11.3816
▁passive	-11.3816
▁doggo	-11.3817
▁Despi	-11.3817
▁GOD	-11.3819
▁handling	-11.3819
priorities	-11.3822
▁cuck	-11.3825
▁stolen	-11.3828
Adam	-11.3835
▁everytime	-11.3836
▁rice	-11.3837
▁provid	-11.3844
▁bow	-11.3846
▁yup	-11.3848
▁director	-11.3851
▁overreact	-11.3856
▁followers	-11.386
39	-11.3861
▁cave	-11.3865
apple	-11.3886
▁critical	-11.3886
▁peep	-11.3919
▁constitu	-11.3928
dental	-11.3935
Peter	-11.3956
AKE	-11.3965
predictable	-11.3965
▁communicate	-11.398
▁bugg	-11.3987
eeeee	-11.4014
▁introduce	-11.4026
ckles	-11.404
96	-11.4054
deep	-11.4111
flick	-11.4125
Frank	-11.4135
cute	-11.4158
OPE	-11.4171
▁disgust	-11.4186
▁fest	-11.4186
bday	-11.4191
▁Part	-11.4202
▁flipp	-11.4229
disgusted	-11.4231
▁Def	-11.4233
growl	-11.4296
EV	-11.4304
biased	-11.4307
JJ	-11.4331
▁rumor	-11.4371
▁Gold	-11.4389
Hour	-11.4391
ddling	-11.4419
🤣	-11.4557
grand	-11.4564
fruit	-11.4566
youtube	-11.4566
Girl	-11.4566
Black	-11.4567
project	-11.4567
broken	-11.4568
national	-11.4568
creepy	-11.4568
summer	-11.4568
direct	-11.4569
awesome	-11.4569
control	-11.4569
Sorry	-11.4569
believe	-11.4569
would	-11.4569
Happy	-11.4569
because	-11.4569
birthday	-11.4569
Free	-11.457
from	-11.457
view	-11.4571
women	-11.4573
half	-11.4573
value	-11.4575
scary	-11.4577
kids	-11.4582
super	-11.4584
gender	-11.4593
umbling	-11.4601
soul	-11.4606
▁corn	-11.4652
prin	-11.4668
Phone	-11.4686
select	-11.4686
Dead	-11.4687
▁spark	-11.47
▁REAL	-11.4701
+++	-11.4701
▁refugee	-11.4701
charlotte	-11.4701
▁Expect	-11.4701
▁disappear	-11.4701
MHChat	-11.4701
Society	-11.4701
Terrible	-11.4701
WHERE	-11.4701
atmosphere	-11.4701
devastated	-11.4701
dministration	-11.4701
hypocrisy	-11.4701
intellectual	-11.4701
lbourne	-11.4701
mainstream	-11.4701
▁Basically	-11.4701
▁England	-11.4701
▁League	-11.4701
▁Manchester	-11.4701
▁Minnesota	-11.4701
▁Neither	-11.4701
▁PEOPLE	-11.4701
▁Suddenly	-11.4701
▁Sydney	-11.4701
▁Typical	-11.4701
▁WOULD	-11.4701
▁century	-11.4701
▁combination	-11.4701
▁commute	-11.4701
▁comprehend	-11.4701
▁frozen	-11.4701
▁grandparents	-11.4701
▁historical	-11.4701
▁horrendous	-11.4701
▁immature	-11.4701
▁inferior	-11.4701
▁infuriate	-11.4701
▁metaphor	-11.4701
▁nephew	-11.4701
▁opponent	-11.4701
▁overwhelming	-11.4701
▁pharma	-11.4701
▁principle	-11.4701
▁skull	-11.4701
▁sponsor	-11.4701
▁sympathy	-11.4701
▁tragic	-11.4701
▁unicorn	-11.4701
▁vegetable	-11.4701
▁ceiling	-11.4701
▁unusual	-11.4701
▁violation	-11.4701
▁Labour	-11.4701
▁declare	-11.4701
▁fortnite	-11.4701
▁grieve	-11.4701
▁scheme	-11.4701
lternate	-11.4701
▁April	-11.4701
▁filter	-11.4701
▁informative	-11.4701
▁pattern	-11.4701
▁rifle	-11.4701
▁Chiefs	-11.4701
▁Goodbye	-11.4701
▁cherish	-11.4701
▁explor	-11.4701
▁autistic	-11.4701
ouncil	-11.4701
▁phase	-11.4701
nugget	-11.4701
wolves	-11.4701
▁Excit	-11.4702
▁agenda	-11.4702
▁superior	-11.4702
▁cartoon	-11.4702
meditation	-11.4702
▁command	-11.4702
▁proceed	-11.4702
▁sample	-11.4702
▁typing	-11.4702
▁BPD	-11.4702
▁wander	-11.4702
▁flesh	-11.4702
cademy	-11.4702
peanut	-11.4702
▁😭😭😭	-11.4702
▁shady	-11.4702
▁grandmother	-11.4702
▁grandpa	-11.4702
▁scrub	-11.4702
▁pinch	-11.4702
▁Brave	-11.4702
▁Spring	-11.4702
▁compromise	-11.4702
▁homie	-11.4702
▁flaws	-11.4702
▁rescue	-11.4702
▁electric	-11.4702
▁install	-11.4702
uthorities	-11.4702
▁communication	-11.4702
▁criticize	-11.4702
▁Happi	-11.4703
prepare	-11.4703
▁noob	-11.4703
▁roam	-11.4703
▁dishes	-11.4703
▁kitten	-11.4703
▁deliberate	-11.4703
▁cancelled	-11.4703
▁spiritual	-11.4704
▁pepper	-11.4704
▁banana	-11.4704
recipe	-11.4704
▁calories	-11.4704
▁legendary	-11.4704
▁DOES	-11.4704
Enough	-11.4704
▁turd	-11.4704
Throw	-11.4704
▁unironically	-11.4704
▁confront	-11.4704
▁glance	-11.4705
▁invent	-11.4705
▁decline	-11.4705
URSE	-11.4705
▁humour	-11.4705
▁wore	-11.4705
▁passionate	-11.4705
▁priority	-11.4705
llusion	-11.4706
▁march	-11.4706
▁humble	-11.4706
▁grey	-11.4706
EDIT	-11.4706
▁Walk	-11.4707
▁tension	-11.4708
▁controller	-11.4708
▁2008	-11.4709
▁Tonight	-11.471
CBS	-11.471
▁compete	-11.471
▁chop	-11.471
▁unlike	-11.4711
▁reliev	-11.4711
▁nuke	-11.4712
▁Android	-11.4712
FOX	-11.4712
▁10,000	-11.4712
▁charity	-11.4714
▁flee	-11.4714
▁scale	-11.4714
▁Oct	-11.4714
▁socks	-11.4715
nzo	-11.4716
▁Bloody	-11.4717
▁SHE	-11.4717
▁adore	-11.4718
▁realization	-11.4719
easant	-11.472
▁fold	-11.472
▁flies	-11.472
▁overcome	-11.4721
▁projection	-11.4721
bacon	-11.4722
▁writers	-11.4724
▁grace	-11.4724
▁taco	-11.4725
Quote	-11.4727
▁puck	-11.473
▁homework	-11.4732
▁slice	-11.4732
▁childish	-11.4733
▁highway	-11.4733
▁coup	-11.4734
lliance	-11.4735
▁plain	-11.4737
David	-11.4739
▁Rule	-11.4739
▁broad	-11.4747
▁vest	-11.4747
izzy	-11.4748
▁advocat	-11.475
EEP	-11.4756
▁tune	-11.4759
iii	-11.4764
propos	-11.4768
walk	-11.4779
tcoin	-11.4789
85	-11.4792
iron	-11.4814
▁visual	-11.4843
▁precise	-11.485
rugged	-11.4853
▁fist	-11.4873
breathless	-11.4873
cels	-11.4873
▁deflect	-11.4899
▁wrapp	-11.4922
AGE	-11.4928
Jay	-11.4934
▁Class	-11.4975
▁recogniz	-11.4986
▁Lib	-11.4997
nova	-11.5015
ensible	-11.503
▁curl	-11.5056
89	-11.5067
▁2.5	-11.5069
flower	-11.508
road	-11.5087
▁binge	-11.51
▁literal	-11.5101
mode	-11.5104
harg	-11.5105
breathe	-11.5106
lexi	-11.5111
JO	-11.5137
▁aggravate	-11.5164
▁$20	-11.5185
Rob	-11.5202
▁dang	-11.5205
▁emotion	-11.5208
Pak	-11.5216
Eye	-11.5231
misunderstanding	-11.525
▁bounce	-11.5278
Joy	-11.5294
tense	-11.5345
Making	-11.5369
ouche	-11.5406
educated	-11.5447
▁introduc	-11.5451
81	-11.5456
▁associate	-11.5468
▁wrap	-11.5472
rupted	-11.5499
product	-11.5526
▁Vis	-11.553
ccept	-11.5546
▁weigh	-11.5549
season	-11.5562
international	-11.5565
desire	-11.5565
cycle	-11.5566
virgin	-11.5566
😅	-11.5567
World	-11.5567
insult	-11.5567
crazy	-11.5569
mourn	-11.5569
buzz	-11.5571
gaming	-11.5571
scene	-11.5571
dull	-11.5572
positive	-11.5572
YOU	-11.5575
▁critic	-11.5585
bored	-11.5586
heard	-11.5591
coach	-11.5595
rush	-11.5626
ghhh	-11.5626
Mind	-11.563
▁obsess	-11.5649
▁expose	-11.5657
▁chuck	-11.5664
▁numb	-11.5681
particularly	-11.5688
scribe	-11.5694
▁execut	-11.5698
▁basket	-11.5701
OTHER	-11.5701
phobic	-11.5701
narcissist	-11.5701
toomuch	-11.5701
Chelsea	-11.5701
Official	-11.5701
congratulations	-11.5701
ibishotel	-11.5701
industrial	-11.5701
intimidation	-11.5701
tumblr	-11.5701
▁AGAIN	-11.5701
▁Apologies	-11.5701
▁February	-11.5701
▁George	-11.5701
▁Government	-11.5701
▁Meanwhile	-11.5701
▁Scotland	-11.5701
▁Shanghai	-11.5701
▁Shenzhen	-11.5701
▁Toronto	-11.5701
▁Vikings	-11.5701
▁analysis	-11.5701
▁atrocious	-11.5701
▁choosing	-11.5701
▁collapse	-11.5701
▁condemn	-11.5701
▁condescending	-11.5701
▁condolences	-11.5701
▁consistency	-11.5701
▁corporation	-11.5701
▁correlation	-11.5701
▁description	-11.5701
▁emergency	-11.5701
▁experiment	-11.5701
▁fabric	-11.5701
▁fascism	-11.5701
▁gatekeeping	-11.5701
▁greedy	-11.5701
▁hormone	-11.5701
▁immoral	-11.5701
▁misunderstood	-11.5701
▁negativity	-11.5701
▁neglect	-11.5701
▁negotiat	-11.5701
▁nigga	-11.5701
▁paranoid	-11.5701
▁rabbit	-11.5701
▁rambling	-11.5701
▁referendum	-11.5701
▁rhyme	-11.5701
▁temperature	-11.5701
▁treasure	-11.5701
▁twenty	-11.5701
▁unbearable	-11.5701
▁upgrade	-11.5701
▁vanilla	-11.5701
▁zoom	-11.5701
Autumn	-11.5701
Muslim	-11.5701
▁Africa	-11.5701
▁Spanish	-11.5701
▁Yesterday	-11.5701
▁brief	-11.5701
▁equivalent	-11.5701
▁escalate	-11.5701
▁noodle	-11.5701
▁rainbow	-11.5701
▁routine	-11.5701
▁scientific	-11.5701
▁sociopath	-11.5701
▁Crazy	-11.5701
▁Jersey	-11.5701
▁McDonald	-11.5701
▁Plenty	-11.5701
▁poverty	-11.5701
▁qualifie	-11.5701
vaxxer	-11.5701
zhou	-11.5701
▁Japanese	-11.5701
▁Liberal	-11.5701
▁Listen	-11.5701
▁anarchist	-11.5701
▁reckon	-11.5701
▁serial	-11.5701
▁slogan	-11.5701
▁stabbed	-11.5701
Broncos	-11.5701
UGE	-11.5701
▁99%	-11.5701
▁excess	-11.5701
▁INTP	-11.5701
▁ancient	-11.5701
▁Living	-11.5701
▁Mmmm	-11.5701
▁royal	-11.5701
▁Denver	-11.5701
▁authority	-11.5701
▁commentator	-11.5701
▁bullied	-11.5702
▁capture	-11.5702
▁crawl	-11.5702
▁Jeez	-11.5702
▁alpha	-11.5702
▁visible	-11.5702
▁comparing	-11.5702
▁jacket	-11.5702
▁troph	-11.5702
▁vanish	-11.5702
▁violate	-11.5702
▁prize	-11.5702
▁wicked	-11.5702
▁Self	-11.5702
▁reckless	-11.5702
algia	-11.5702
▁brick	-11.5702
▁misery	-11.5702
▁teammates	-11.5702
jeep	-11.5702
▁waist	-11.5702
▁Food	-11.5702
▁crown	-11.5702
mperial	-11.5702
▁swimming	-11.5702
▁misogyny	-11.5702
▁Doubt	-11.5702
▁greet	-11.5702
▁Idiot	-11.5702
▁grassroots	-11.5702
Fight	-11.5702
▁procedure	-11.5702
▁restrict	-11.5702
▁Oops	-11.5702
▁carpet	-11.5702
▁restrictions	-11.5702
▁Downvot	-11.5702
▁shelter	-11.5702
▁prostitute	-11.5702
Champion	-11.5702
▁resign	-11.5702
▁perception	-11.5703
YYY	-11.5703
cinema	-11.5703
▁Jets	-11.5703
▁gently	-11.5703
▁cringy	-11.5703
▁facilit	-11.5703
▁southern	-11.5703
▁branch	-11.5703
▁Anti	-11.5703
▁rising	-11.5703
▁centre	-11.5704
▁percentage	-11.5704
▁idol	-11.5704
▁Drink	-11.5704
binary	-11.5704
▁transition	-11.5704
terior	-11.5704
▁MORE	-11.5704
▁speculation	-11.5704
udos	-11.5704
▁hobby	-11.5705
Papa	-11.5705
▁execution	-11.5705
▁classmate	-11.5705
▁admitted	-11.5705
▁species	-11.5706
▁slave	-11.5706
▁tickle	-11.5706
rizon	-11.5706
▁Btw	-11.5706
▁division	-11.5706
▁eternal	-11.5706
▁theories	-11.5707
▁traitor	-11.5707
▁steel	-11.5707
trading	-11.5707
▁Iowa	-11.5708
▁2009	-11.5708
▁Nazi	-11.5708
▁GIVE	-11.5708
▁TAKE	-11.5708
▁foolish	-11.5709
▁cookies	-11.5709
▁package	-11.5709
▁rapid	-11.5709
▁development	-11.571
▁skinny	-11.571
Simply	-11.571
Attack	-11.571
▁replacement	-11.5711
▁WOW	-11.5711
▁glue	-11.5712
▁raid	-11.5712
Jeff	-11.5713
▁European	-11.5713
▁hoard	-11.5713
▁Night	-11.5714
▁surge	-11.5714
▁Huge	-11.5714
▁basis	-11.5714
▁pudd	-11.5715
▁remake	-11.5715
▁Drop	-11.5715
▁sane	-11.5716
▁puff	-11.5717
▁preach	-11.5718
▁steam	-11.5718
▁Rams	-11.5718
▁eight	-11.572
▁playlist	-11.572
▁NJ	-11.5721
▁fright	-11.5723
Down	-11.5724
SSS	-11.5725
▁american	-11.5725
▁campus	-11.5727
▁stack	-11.5728
▁mama	-11.5729
▁fret	-11.5733
▁Chee	-11.5734
bitcoin	-11.5734
Smile	-11.5739
▁ought	-11.574
ECT	-11.5749
▁£1	-11.5759
▁Bol	-11.5765
▁propose	-11.5765
▁strain	-11.5783
1.5	-11.5837
troye	-11.5842
characteristic	-11.5903
▁whipp	-11.591
▁peaceful	-11.5936
paul	-11.5948
▁hahahaha	-11.5974
▁Medica	-11.5995
job	-11.6014
▁clap	-11.6052
mighty	-11.6059
verge	-11.6092
Grand	-11.6124
Irish	-11.616
OUT	-11.6237
▁coordinat	-11.6293
▁Job	-11.6335
▁clos	-11.6369
democratic	-11.646
▁folk	-11.6487
Politic	-11.6501
einer	-11.6535
unny	-11.6547
▁independen	-11.6566
▁authoritarian	-11.6641
ception	-11.6642
mount	-11.6673
craft	-11.6676
addiction	-11.6676
birth	-11.6676
😡	-11.6677
Apple	-11.6677
respect	-11.6677
healing	-11.6678
fresh	-11.6678
debate	-11.6678
terrifying	-11.6679
sauce	-11.6679
First	-11.6679
public	-11.6679
welcome	-11.6679
pissed	-11.668
normal	-11.668
video	-11.668
different	-11.668
With	-11.668
RIP	-11.668
first	-11.668
worst	-11.668
could	-11.668
better	-11.6681
toxic	-11.6682
safe	-11.67
▁disappoint	-11.6708
sistance	-11.6733
blood	-11.6759
green	-11.6767
▁shadow	-11.6783
▁German	-11.6789
rogress	-11.6792
relieved	-11.6805
wednesday	-11.6806
▁technic	-11.6811
Patriot	-11.6812
psychiatr	-11.6812
▁PLEASE	-11.6812
▁advertise	-11.6812
▁implement	-11.6812
▁prosecute	-11.6812
▁sustain	-11.6812
Perhaps	-11.6812
Yankees	-11.6812
anniversary	-11.6812
apprehension	-11.6812
eclipse	-11.6812
hysteria	-11.6812
ikipedia	-11.6812
livesmatter	-11.6812
prejudice	-11.6812
problemsolving	-11.6812
southpark	-11.6812
▁Alabama	-11.6812
▁Brazil	-11.6812
▁Colorado	-11.6812
▁District	-11.6812
▁Fantastic	-11.6812
▁Georgia	-11.6812
▁Hollywood	-11.6812
▁MONEY	-11.6812
▁NEXT	-11.6812
▁October	-11.6812
▁Ontario	-11.6812
▁Seattle	-11.6812
▁Spirit	-11.6812
▁Starbucks	-11.6812
▁Venezuela	-11.6812
▁WHEN	-11.6812
▁centrist	-11.6812
▁chemical	-11.6812
▁dialogue	-11.6812
▁feminism	-11.6812
▁fragile	-11.6812
▁governance	-11.6812
▁gullible	-11.6812
▁hashtag	-11.6812
▁invisible	-11.6812
▁judgment	-11.6812
▁kindergarten	-11.6812
▁migraine	-11.6812
▁neckbeard	-11.6812
▁nonetheless	-11.6812
▁obscure	-11.6812
▁opportunities	-11.6812
▁paranoia	-11.6812
▁perhaps	-11.6812
▁province	-11.6812
▁razor	-11.6812
▁regulation	-11.6812
▁resolved	-11.6812
▁servant	-11.6812
▁structure	-11.6812
▁suspicious	-11.6812
▁universal	-11.6812
▁variety	-11.6812
▁🙏🙏🙏	-11.6812
rbitrary	-11.6813
▁Sweden	-11.6813
▁chaotic	-11.6813
▁pencil	-11.6813
▁profound	-11.6813
▁refusing	-11.6813
▁surrounded	-11.6813
▁trilogy	-11.6813
▁twitch	-11.6813
Horror	-11.6813
▁BACK	-11.6813
▁INTJ	-11.6813
▁eachother	-11.6813
▁immunity	-11.6813
▁pilot	-11.6813
▁Foreign	-11.6813
▁dignity	-11.6813
▁frightening	-11.6813
▁Grandma	-11.6813
▁crisp	-11.6813
▁intolerant	-11.6813
photography	-11.6813
▁TLJ	-11.6813
▁juicy	-11.6813
▁Scottish	-11.6813
▁pursue	-11.6813
▁essay	-11.6813
UUU	-11.6813
ttorney	-11.6813
▁echo	-11.6813
▁agency	-11.6813
mongering	-11.6813
▁William	-11.6813
▁indulge	-11.6813
▁thrill	-11.6813
congress	-11.6813
▁marvel	-11.6813
hitler	-11.6813
▁sanity	-11.6813
▁polish	-11.6813
Clinton	-11.6813
▁Heaven	-11.6813
▁drift	-11.6813
▁panties	-11.6813
▁Zero	-11.6813
▁Street	-11.6813
STILL	-11.6813
▁Cross	-11.6813
▁goodbye	-11.6813
figur	-11.6813
▁cyber	-11.6813
▁mature	-11.6813
▁fireworks	-11.6813
▁hamster	-11.6813
▁desert	-11.6813
impeach	-11.6813
▁barrel	-11.6813
▁session	-11.6813
▁smear	-11.6813
▁FBI	-11.6813
▁River	-11.6813
▁quad	-11.6813
▁Candice	-11.6813
▁boundaries	-11.6813
▁priest	-11.6813
▁Boston	-11.6813
poetry	-11.6813
▁Ghost	-11.6813
▁freezing	-11.6813
dessert	-11.6813
▁:'(	-11.6813
▁Welp	-11.6813
▁commie	-11.6813
▁Italian	-11.6813
▁mercy	-11.6813
operating	-11.6813
▁status	-11.6813
▁Close	-11.6813
▁studio	-11.6813
▁announcement	-11.6813
▁roof	-11.6813
▁infant	-11.6813
▁Short	-11.6813
▁implie	-11.6813
jesus	-11.6813
murky	-11.6814
▁retain	-11.6814
▁nerf	-11.6814
▁contest	-11.6814
▁keyboard	-11.6814
ctator	-11.6814
▁Word	-11.6814
▁dismal	-11.6814
▁entry	-11.6814
UNGA	-11.6814
▁organize	-11.6814
▁shaming	-11.6814
▁😭😭	-11.6814
▁motor	-11.6814
▁blink	-11.6814
▁continuous	-11.6814
▁GUY	-11.6815
▁^^	-11.6815
▁Hugs	-11.6815
activate	-11.6815
▁graphic	-11.6815
wolf	-11.6815
▁establishment	-11.6815
▁Change	-11.6815
▁sidewalk	-11.6815
▁device	-11.6816
▁balloon	-11.6816
▁$500	-11.6816
▁disrespectful	-11.6816
▁transport	-11.6817
▁Gotcha	-11.6817
▁insightful	-11.6817
▁2013	-11.6818
▁Rojo	-11.6818
▁outrageous	-11.6818
▁crook	-11.6818
▁WELL	-11.6818
▁bigotry	-11.6819
▁booze	-11.6819
▁secure	-11.6819
rilla	-11.682
▁warrant	-11.682
▁boobs	-11.6821
blade	-11.6821
▁subtle	-11.6822
▁pork	-11.6822
▁preference	-11.6822
indication	-11.6823
▁Tree	-11.6823
stein	-11.6823
Tech	-11.6825
▁convo	-11.6825
▁popping	-11.6825
empath	-11.6827
▁string	-11.6827
Honest	-11.683
socialmedia	-11.6834
hoose	-11.6835
▁chant	-11.6837
fathom	-11.6838
kkk	-11.684
▁qui	-11.6841
▁slim	-11.6843
uppet	-11.6866
audi	-11.6877
squat	-11.6885
arriage	-11.6887
▁unsu	-11.6893
sickness	-11.6897
hahahahahaha	-11.6921
mystery	-11.6926
novel	-11.6933
COME	-11.6936
Strong	-11.6945
ABC	-11.6949
premiere	-11.6975
?!?!?!	-11.6977
fitness	-11.6983
▁neo	-11.6988
▁dye	-11.6997
▁ideologi	-11.7003
leaning	-11.7047
▁determin	-11.7123
create	-11.7127
developed	-11.7175
ooooooooo	-11.7199
decid	-11.7221
weeb	-11.7222
Panic	-11.7313
▁philosoph	-11.7318
perfection	-11.7419
hhhhhhh	-11.7448
flatter	-11.7471
▁litera	-11.7511
ATT	-11.7522
irritated	-11.7678
lection	-11.776
▁whip	-11.7805
existent	-11.7848
▁premier	-11.7881
▁admir	-11.7925
sparkling	-11.7927
Baby	-11.7927
👍	-11.7927
anxious	-11.7927
student	-11.7928
rejoice	-11.7928
annoyed	-11.7928
orange	-11.7928
beauty	-11.7928
holiday	-11.7928
memories	-11.7928
natural	-11.7928
education	-11.7928
official	-11.7928
😆	-11.7928
secret	-11.7928
haunt	-11.7929
pizza	-11.7929
YouTube	-11.7929
blessed	-11.7929
football	-11.7929
crime	-11.7929
system	-11.7929
especially	-11.7929
giving	-11.793
People	-11.793
general	-11.793
When	-11.793
living	-11.793
passion	-11.793
wtf	-11.7932
learn	-11.7933
court	-11.7934
close	-11.794
magic	-11.7955
▁scarie	-11.7975
▁disturb	-11.8004
▁engine	-11.8007
level	-11.8008
▁trail	-11.8012
▁millennial	-11.8018
total	-11.8033
▁Complete	-11.8039
▁definit	-11.8057
▁establish	-11.8059
▁speculat	-11.806
hocolate	-11.806
rdinary	-11.8062
mitted	-11.8062
diagnos	-11.8062
▁rebuild	-11.8062
Football	-11.8062
Halloween	-11.8062
IIIII	-11.8062
▁Qiqiang	-11.8062
▁Singapore	-11.8062
▁adrenaline	-11.8062
▁circlejerk	-11.8062
▁intervention	-11.8062
▁monitor	-11.8062
LIFE	-11.8062
MSNBC	-11.8062
adventure	-11.8062
bizhour	-11.8062
dayofpeace	-11.8062
fiancé	-11.8062
lasgow	-11.8062
massiah	-11.8062
notfair	-11.8062
sufficient	-11.8062
▁Chargers	-11.8062
▁Conservative	-11.8062
▁Correct	-11.8062
▁Fortnite	-11.8062
▁Hawaii	-11.8062
▁Mountain	-11.8062
▁NSFW	-11.8062
▁Respect	-11.8062
▁Tuesday	-11.8062
▁Vancouver	-11.8062
▁Walmart	-11.8062
▁Wisconsin	-11.8062
▁accusation	-11.8062
▁activities	-11.8062
▁apologise	-11.8062
▁bacteria	-11.8062
▁blogger	-11.8062
▁capacity	-11.8062
▁cautious	-11.8062
▁congratulate	-11.8062
▁cynical	-11.8062
▁dedication	-11.8062
▁devastating	-11.8062
▁discipline	-11.8062
▁disingenuous	-11.8062
▁displeasure	-11.8062
▁explode	-11.8062
▁exposure	-11.8062
▁furniture	-11.8062
▁implication	-11.8062
▁importance	-11.8062
▁incompetent	-11.8062
▁institution	-11.8062
▁ketchup	-11.8062
▁length	-11.8062
▁misinformation	-11.8062
▁netizens	-11.8062
▁oblivious	-11.8062
▁opposition	-11.8062
▁pedophile	-11.8062
▁piercing	-11.8062
▁promotion	-11.8062
▁proportion	-11.8062
▁psychological	-11.8062
▁resolution	-11.8062
▁strategi	-11.8062
▁suspicion	-11.8062
▁syndrome	-11.8062
▁tactics	-11.8062
▁territory	-11.8062
▁yourselves	-11.8062
▁Austin	-11.8063
▁Future	-11.8063
▁Youtube	-11.8063
▁arrang	-11.8063
▁disgrace	-11.8063
▁dislocat	-11.8063
▁ethnic	-11.8063
▁expense	-11.8063
▁fundamental	-11.8063
▁helmet	-11.8063
▁ounce	-11.8063
▁powder	-11.8063
▁spontaneous	-11.8063
▁turtle	-11.8063
wisewords	-11.8063
▁;-)	-11.8063
▁Orlando	-11.8063
▁arrow	-11.8063
▁cooperate	-11.8063
▁jaunt	-11.8063
▁jeez	-11.8063
▁mafia	-11.8063
▁segment	-11.8063
▁unknown	-11.8063
Michael	-11.8063
▁observation	-11.8063
▁summary	-11.8063
amazon	-11.8063
▁consult	-11.8063
▁debating	-11.8063
▁diagnosis	-11.8063
attachment	-11.8063
naughty	-11.8063
▁grammar	-11.8063
▁vicious	-11.8063
revolting	-11.8063
▁NBA	-11.8063
▁puppy	-11.8063
▁reliable	-11.8063
▁valley	-11.8063
exaggerat	-11.8063
harvest	-11.8063
▁bribe	-11.8063
▁replied	-11.8063
natomy	-11.8063
photographer	-11.8063
▁NEED	-11.8063
▁obese	-11.8063
sunshine	-11.8063
▁MLM	-11.8063
▁Winter	-11.8063
thletic	-11.8063
▁Search	-11.8063
▁1/2	-11.8063
▁simul	-11.8063
▁Careful	-11.8063
▁shaving	-11.8063
▁clever	-11.8063
▁FYI	-11.8063
▁Ignore	-11.8063
▁slander	-11.8063
mhchat	-11.8063
▁Praying	-11.8063
yummy	-11.8063
▁GTA	-11.8063
▁witty	-11.8063
▁natty	-11.8063
▁BTW	-11.8063
▁Eagle	-11.8063
▁Praise	-11.8063
▁False	-11.8063
▁niece	-11.8063
patriot	-11.8063
▁chunk	-11.8063
▁compassion	-11.8063
▁repeatedly	-11.8063
▁digital	-11.8063
▁Minecraft	-11.8063
▁clone	-11.8063
daunting	-11.8063
Mobile	-11.8063
▁Simple	-11.8063
▁cease	-11.8063
Jazz	-11.8063
▁forehead	-11.8063
pussy	-11.8063
▁Normal	-11.8063
▁shining	-11.8063
▁criticizing	-11.8063
▁goofy	-11.8063
▁lottery	-11.8063
underground	-11.8063
▁soccer	-11.8063
🤣🤣🤣🤣	-11.8063
▁medium	-11.8063
intuiti	-11.8063
▁therefore	-11.8063
▁frost	-11.8063
sunrise	-11.8063
donald	-11.8063
▁barrier	-11.8063
▁oven	-11.8063
Happen	-11.8063
ThisIs	-11.8063
▁prosper	-11.8063
▁steer	-11.8063
▁Giant	-11.8064
▁ribs	-11.8064
frightened	-11.8064
▁Xbox	-11.8064
▁consume	-11.8064
▁babe	-11.8064
▁chef	-11.8064
▁xbox	-11.8064
MUST	-11.8064
▁MAGA	-11.8064
libtard	-11.8064
Louis	-11.8064
empire	-11.8064
sync	-11.8064
▁glitch	-11.8064
▁landlord	-11.8064
Tweet	-11.8065
▁biology	-11.8065
▁darn	-11.8065
▁french	-11.8065
▁closure	-11.8065
▁remarkabl	-11.8065
▁Ironic	-11.8065
Robert	-11.8065
presidential	-11.8065
Network	-11.8065
▁Paris	-11.8065
bronco	-11.8065
▁bald	-11.8065
▁moderate	-11.8065
dominant	-11.8065
▁charging	-11.8066
▁shipping	-11.8066
gossip	-11.8066
▁pupper	-11.8066
▁ANY	-11.8066
inflame	-11.8066
▁troop	-11.8066
▁Shoot	-11.8067
▁Palm	-11.8068
▁crave	-11.8068
▁cannon	-11.8069
secuti	-11.8071
▁Money	-11.8071
Simon	-11.8071
REAT	-11.8074
▁bankrupt	-11.8075
▁dense	-11.8076
▁narc	-11.8077
▁rust	-11.808
Protest	-11.808
Feminis	-11.8081
AHS	-11.8082
drive	-11.8083
▁limb	-11.8083
▁cuddle	-11.8084
aradise	-11.8085
Comedy	-11.8099
Bush	-11.8105
western	-11.8107
▁tolerate	-11.8109
soggy	-11.8114
HAHAHAH	-11.8118
👍🏻	-11.8126
unprofessional	-11.8128
(?)	-11.8158
gnoring	-11.8178
Clai	-11.8256
▁practic	-11.8271
AFL	-11.8272
hangover	-11.8404
crow	-11.841
princess	-11.8457
Bran	-11.8482
▁neg	-11.8498
cuddl	-11.8519
▁Oooh	-11.8552
interesting	-11.8655
▁misunderstand	-11.8665
▁Bruh	-11.8751
▁juggl	-11.8838
swap	-11.8846
protected	-11.8967
udy	-11.8983
▁attract	-11.9011
Kerr	-11.9088
hunger	-11.9168
stitute	-11.9255
hardwork	-11.9298
drained	-11.9321
lcohol	-11.9333
hotoshop	-11.9341
White	-11.9348
FORE	-11.9353
documentary	-11.9354
epidemic	-11.9355
triggered	-11.9356
Chicago	-11.9356
dancing	-11.9356
bathroom	-11.9356
habit	-11.9356
brown	-11.9357
quiet	-11.9357
therapy	-11.9357
emotional	-11.9357
customer	-11.9357
garbage	-11.9357
surprise	-11.9358
humor	-11.9358
True	-11.9358
obviously	-11.9358
children	-11.9358
amazing	-11.9359
wrong	-11.9359
Great	-11.9359
meeting	-11.9359
Stop	-11.936
corrupt	-11.9402
▁recruit	-11.9407
stagram	-11.9414
▁releas	-11.9423
▁confuse	-11.9448
itizens	-11.9452
▁Blood	-11.9467
▁Clear	-11.9468
▁immediate	-11.9468
actively	-11.9473
nstead	-11.9474
▁neuro	-11.9483
▁Mexic	-11.9483
▁trait	-11.9484
NGE	-11.9485
▁discriminat	-11.9487
etween	-11.9488
▁blank	-11.9488
warrior	-11.9489
▁HAPPEN	-11.9491
▁deploy	-11.9491
ManUtd	-11.9491
Microsoft	-11.9491
POTUS	-11.9491
SUPPORT	-11.9491
arrogance	-11.9491
celebrities	-11.9491
currency	-11.9491
disheartened	-11.9491
entitlement	-11.9491
gratitude	-11.9491
keithlamontscott	-11.9491
satisfied	-11.9491
screech	-11.9491
shakespeare	-11.9491
terrorstatepak	-11.9491
voluntar	-11.9491
▁Childhood	-11.9491
▁Discord	-11.9491
▁Genuinely	-11.9491
▁Gillette	-11.9491
▁LEFT	-11.9491
▁Number	-11.9491
▁Phoenix	-11.9491
▁SHOULD	-11.9491
▁Salute	-11.9491
▁Wenchuan	-11.9491
▁YEAH	-11.9491
▁algorithm	-11.9491
▁allergic	-11.9491
▁approval	-11.9491
▁breeze	-11.9491
▁butterflies	-11.9491
▁describing	-11.9491
▁detention	-11.9491
▁dissonance	-11.9491
▁distinguish	-11.9491
▁elbow	-11.9491
▁eternity	-11.9491
▁flavour	-11.9491
▁galaxy	-11.9491
▁inaccurate	-11.9491
▁irresponsible	-11.9491
▁justification	-11.9491
▁library	-11.9491
▁loneliness	-11.9491
▁lunatic	-11.9491
▁manipulation	-11.9491
▁manipulative	-11.9491
▁marijuana	-11.9491
▁marshmallow	-11.9491
▁migrant	-11.9491
▁mosquito	-11.9491
▁narrow	-11.9491
▁nickname	-11.9491
▁nipple	-11.9491
▁perceived	-11.9491
▁perpetuat	-11.9491
▁prescription	-11.9491
▁publish	-11.9491
▁semester	-11.9491
▁sequel	-11.9491
▁sketch	-11.9491
▁sunglasses	-11.9491
▁technology	-11.9491
▁temporary	-11.9491
▁troublemakers	-11.9491
▁tunnel	-11.9491
▁uncontrollabl	-11.9491
▁unethical	-11.9491
▁unlucky	-11.9491
▁unsettling	-11.9491
▁unsubscribe	-11.9491
▁vaccination	-11.9491
▁vodka	-11.9491
▁wizard	-11.9491
taneous	-11.9491
▁RUDY	-11.9491
▁application	-11.9491
▁astounding	-11.9491
▁brainwashed	-11.9491
▁gesture	-11.9491
▁leather	-11.9491
▁neutral	-11.9491
▁obligat	-11.9491
▁staggering	-11.9491
▁stubborn	-11.9491
▁uncommon	-11.9491
▁vulgar	-11.9491
sydney	-11.9491
thursday	-11.9491
▁cricket	-11.9491
▁explosi	-11.9491
▁frequent	-11.9491
▁regime	-11.9491
▁slightest	-11.9491
▁translation	-11.9491
▁veteran	-11.9491
😤😤😤	-11.9491
Children	-11.9491
Current	-11.9491
dyspho	-11.9491
▁Video	-11.9491
▁clutch	-11.9491
▁spanish	-11.9491
obriety	-11.9491
▁packaging	-11.9491
▁Group	-11.9491
▁motherfucker	-11.9491
▁uniform	-11.9491
chrome	-11.9491
▁Tomorrow	-11.9491
▁squeal	-11.9491
▁billionaire	-11.9491
▁loathe	-11.9491
▁partially	-11.9491
▁protein	-11.9491
▁Padres	-11.9491
▁flood	-11.9491
Auntie	-11.9491
brilliance	-11.9491
▁Annoy	-11.9491
shuffle	-11.9491
Beauty	-11.9491
▁invalid	-11.9491
suicide	-11.9491
▁Forgive	-11.9491
▁incapable	-11.9491
Murray	-11.9491
ikachu	-11.9491
▁LPT	-11.9491
▁Write	-11.9491
▁incentive	-11.9491
▁robbed	-11.9491
▁abnormal	-11.9491
▁numero	-11.9491
▁overthinking	-11.9491
murray	-11.9491
vampire	-11.9491
▁salad	-11.9491
▁shiny	-11.9491
Daniel	-11.9491
▁quake	-11.9491
▁overseas	-11.9491
ridicule	-11.9491
▁Gross	-11.9491
▁leap	-11.9491
junior	-11.9491
Summer	-11.9491
▁blah	-11.9491
▁clinic	-11.9491
▁Parent	-11.9491
▁Indeed	-11.9492
▁integra	-11.9492
▁distant	-11.9492
▁latter	-11.9492
▁apology	-11.9492
▁Geez	-11.9492
▁ensure	-11.9492
▁leash	-11.9492
▁uplifting	-11.9492
▁Colts	-11.9492
🏼‍♀️	-11.9492
▁Whoops	-11.9492
▁resume	-11.9492
▁terminal	-11.9492
vasive	-11.9492
▁sideways	-11.9492
▁Carolin	-11.9492
▁Buy	-11.9492
▁crust	-11.9492
▁flaming	-11.9493
semitism	-11.9493
▁Solid	-11.9493
▁drool	-11.9493
▁Tower	-11.9493
▁induce	-11.9493
smith	-11.9493
▁Speak	-11.9493
ANCE	-11.9493
▁formula	-11.9494
john	-11.9494
▁entity	-11.9494
▁molest	-11.9494
▁nominate	-11.9495
▁oooh	-11.9495
atherine	-11.9496
barista	-11.9496
scrum	-11.9497
ETA	-11.9497
▁chew	-11.9497
▁gimm	-11.9498
▁TWO	-11.9499
pensive	-11.95
CGI	-11.9502
Vote	-11.9503
▁rode	-11.9505
MLS	-11.9507
arsehole	-11.9516
Hotel	-11.9536
▁Vita	-11.9538
crybaby	-11.955
▁excel	-11.9558
oooooooooooooooo	-11.9567
censorship	-11.9569
indicate	-11.9587
Julia	-11.9606
emporar	-11.9615
^^^	-11.9643
RemindMe	-11.9672
shameless	-11.9701
ironically	-11.9709
)))	-11.9853
insert	-11.9863
health	-11.9897
Sean	-11.9932
attraction	-11.9943
▁convers	-12.0128
▁bounc	-12.0144
▁googl	-12.0253
onut	-12.0309
philosophy	-12.0424
tenanc	-12.0526
producer	-12.0533
▁prince	-12.0644
▁Giv	-12.0769
▁involv	-12.0838
ompa	-12.0921
Stein	-12.0997
write	-12.1002
hahahahahahaha	-12.1002
lready	-12.1014
chirp	-12.1022
Angel	-12.1022
insecure	-12.1022
confident	-12.1022
kindness	-12.1023
miserable	-12.1023
fashion	-12.1023
perfect	-12.1023
animated	-12.1023
energy	-12.1023
profit	-12.1023
dreadful	-12.1023
brilliant	-12.1023
stretch	-12.1023
babies	-12.1024
struggle	-12.1024
religion	-12.1024
concern	-12.1024
annoying	-12.1024
college	-12.1024
Everyone	-12.1025
advice	-12.1025
stupid	-12.1025
probably	-12.1025
everyone	-12.1025
▁HAHAHA	-12.1044
▁stud	-12.1077
▁fascinat	-12.11
▁rival	-12.1125
▁interfere	-12.1131
▁apparent	-12.1135
ptimism	-12.1149
finitely	-12.1153
▁nucle	-12.1153
trength	-12.1154
98765432345678	-12.1154
calorie	-12.1154
raffic	-12.1156
procedur	-12.1156
ocracy	-12.1158
🎉🎉🎉	-12.1158
((((((	-12.1158
colinka	-12.1158
kashmir	-12.1158
😍😍😍	-12.1158
Kashmir	-12.1158
entrepreneur	-12.1158
evaluate	-12.1158
haikuchallenge	-12.1158
integrity	-12.1158
oligarchy	-12.1158
panicattacks	-12.1158
regulated	-12.1158
rguably	-12.1158
whisky	-12.1158
wrestling	-12.1158
yankees	-12.1158
▁Brooklyn	-12.1158
▁Capitalism	-12.1158
▁Clemson	-12.1158
▁Dakota	-12.1158
▁Festival	-12.1158
▁HAPPY	-12.1158
▁Hawks	-12.1158
▁JOKE	-12.1158
▁Lightning	-12.1158
▁Project	-12.1158
▁Raptors	-12.1158
▁Spotify	-12.1158
▁Steeler	-12.1158
▁THOUGH	-12.1158
▁TRUE	-12.1158
▁Technically	-12.1158
▁Tianjin	-12.1158
▁Unbelievable	-12.1158
▁abysmal	-12.1158
▁accuracy	-12.1158
▁advertising	-12.1158
▁allegation	-12.1158
▁caffeine	-12.1158
▁challenging	-12.1158
▁cooperation	-12.1158
▁criteria	-12.1158
▁damaging	-12.1158
▁dammit	-12.1158
▁destination	-12.1158
▁dinosaur	-12.1158
▁disadvantage	-12.1158
▁disguise	-12.1158
▁distaste	-12.1158
▁distinct	-12.1158
▁distraught	-12.1158
▁ecstatic	-12.1158
▁elaborate	-12.1158
▁elephant	-12.1158
▁embarass	-12.1158
▁employer	-12.1158
▁enormous	-12.1158
▁enthusiasm	-12.1158
▁existential	-12.1158
▁experiencing	-12.1158
▁exploding	-12.1158
▁extension	-12.1158
▁extremist	-12.1158
▁feminine	-12.1158
▁guidance	-12.1158
▁hypocrite	-12.1158
▁hypocritical	-12.1158
▁indignation	-12.1158
▁infrastructure	-12.1158
▁innovative	-12.1158
▁intimidating	-12.1158
▁intrigued	-12.1158
▁introvert	-12.1158
▁jewelry	-12.1158
▁laziness	-12.1158
▁lgbt	-12.1158
▁mandatory	-12.1158
▁manipulate	-12.1158
▁manufacture	-12.1158
▁martyr	-12.1158
▁masterpiece	-12.1158
▁masturbate	-12.1158
▁moderator	-12.1158
▁nauseous	-12.1158
▁negligen	-12.1158
▁nostril	-12.1158
▁notification	-12.1158
▁oblivion	-12.1158
▁pedophili	-12.1158
▁perseverance	-12.1158
▁persistence	-12.1158
▁pessimism	-12.1158
▁pretentious	-12.1158
▁promising	-12.1158
▁protagonist	-12.1158
▁qualify	-12.1158
▁quirky	-12.1158
▁reciproc	-12.1158
▁repulsive	-12.1158
▁revenue	-12.1158
▁sloppy	-12.1158
▁subtitles	-12.1158
▁supremacist	-12.1158
▁suspended	-12.1158
▁symbol	-12.1158
▁tobacco	-12.1158
▁toothpaste	-12.1158
▁twelve	-12.1158
▁uncertainty	-12.1158
▁unrealistic	-12.1158
▁welfare	-12.1158
❤️❤️❤️	-12.1158
chelsea	-12.1158
▁Buddy	-12.1158
▁Cowboy	-12.1158
▁Dragon	-12.1158
▁Emotion	-12.1158
▁HUMAN	-12.1158
▁Hockey	-12.1158
▁Kidding	-12.1158
▁Pokemon	-12.1158
▁School	-12.1158
▁angrily	-12.1158
▁blonde	-12.1158
▁calculat	-12.1158
▁dipshit	-12.1158
▁exposing	-12.1158
▁hesitant	-12.1158
▁hobbies	-12.1158
▁located	-12.1158
▁museum	-12.1158
▁pregnancy	-12.1158
▁reputation	-12.1158
▁senior	-12.1158
▁turkey	-12.1158
▁xenophob	-12.1158
SELF	-12.1158
StephenKing	-12.1158
mmortal	-12.1158
wardrobe	-12.1158
yourebeautiful	-12.1158
▁Coffee	-12.1158
▁Machine	-12.1158
▁assassin	-12.1158
▁clarity	-12.1158
▁cushion	-12.1158
▁decrease	-12.1158
▁demonstrate	-12.1158
▁firefighter	-12.1158
▁hypothetic	-12.1158
▁overweight	-12.1158
▁playground	-12.1158
▁prequel	-12.1158
▁sniff	-12.1158
▁starvation	-12.1158
Malicious	-12.1158
indignant	-12.1158
patronus	-12.1158
▁Spider	-12.1158
▁Ultra	-12.1158
▁charisma	-12.1158
▁fluffy	-12.1158
▁suprise	-12.1158
▁various	-12.1158
champagne	-12.1158
clinton	-12.1158
▁Lidong	-12.1158
▁Sabres	-12.1158
▁Switch	-12.1158
▁genetic	-12.1158
▁tackle	-12.1158
woooosh	-12.1158
▁Arrow	-12.1158
▁escort	-12.1158
▁hollow	-12.1158
▁mechanism	-12.1158
▁substance	-12.1158
▁Garden	-12.1158
▁Soviet	-12.1158
▁blurr	-12.1158
😤😤😤😤😤😤😤😤😤😤😤😤	-12.1158
Thomas	-12.1158
▁bartender	-12.1158
▁craving	-12.1158
▁sleeve	-12.1158
▁casino	-12.1158
▁comfy	-12.1158
▁dentist	-12.1158
▁riddance	-12.1158
Effort	-12.1158
▁initiate	-12.1158
▁lvl	-12.1158
▁spawn	-12.1158
▁vocal	-12.1158
ALWA	-12.1158
ndustries	-12.1158
▁MLK	-12.1158
▁SJW	-12.1158
▁concentrat	-12.1158
▁confess	-12.1158
▁invasion	-12.1158
▁narcissistic	-12.1158
Cleveland	-12.1158
▁prompt	-12.1158
extended	-12.1158
▁Skyrim	-12.1158
▁contender	-12.1158
▁problematic	-12.1158
Nawaz	-12.1158
▁waffles	-12.1158
▁preceden	-12.1158
Ultimate	-12.1158
▁GIF	-12.1158
▁Senate	-12.1158
▁Xiao	-12.1158
12345	-12.1158
fanfiction	-12.1158
▁DAMN	-12.1158
▁GDP	-12.1158
▁DSJ	-12.1158
▁competing	-12.1158
▁finance	-12.1158
▁tracing	-12.1158
▁sushi	-12.1158
▁survey	-12.1158
▁timid	-12.1158
▁costume	-12.1158
▁Tampa	-12.1158
Question	-12.1158
▁advise	-12.1158
▁endorse	-12.1158
exclud	-12.1158
▁quant	-12.1158
▁twat	-12.1158
Prince	-12.1158
▁cabin	-12.1158
Genius	-12.1158
▁Level	-12.1158
Special	-12.1158
AUSE	-12.1158
spooky	-12.1159
consuming	-12.1159
Presidential	-12.1159
Faith	-12.1159
▁Aqua	-12.1159
Adapt	-12.1159
▁yawn	-12.1159
▁GOAT	-12.1159
Bravo	-12.1159
abilities	-12.1159
friday	-12.1159
▁concede	-12.1159
▁FREE	-12.1159
EEEEEEEEE	-12.1159
nceCrut	-12.1159
Kevin	-12.1159
VOI	-12.116
▁lurk	-12.116
oggart	-12.116
oggling	-12.116
Radio	-12.1161
leigh	-12.1161
Modern	-12.1161
dawg	-12.1161
▁Possibl	-12.1162
atrix	-12.1162
ARRI	-12.1162
▁audibl	-12.1164
View	-12.1165
▁deceiv	-12.1167
▁organis	-12.1168
nexpected	-12.1168
bcnews	-12.1169
Price	-12.1173
floss	-12.1174
▁MIL	-12.1175
hahhaha	-12.1175
liberate	-12.1176
Batman	-12.1177
▁£4	-12.1179
rivalry	-12.1191
▁overlap	-12.1191
luesfest	-12.1193
Title	-12.1204
aggy	-12.121
incite	-12.1212
Lazy	-12.1231
Southern	-12.128
notebook	-12.1297
politeness	-12.1319
▁enforc	-12.1321
disney	-12.1334
lergy	-12.1334
beloved	-12.1337
sobbing	-12.1424
▁associat	-12.1574
compose	-12.1621
Assist	-12.1696
guardian	-12.171
distracted	-12.1751
Saw	-12.1753
ffective	-12.1813
Golden	-12.1853
sentimental	-12.1885
tripped	-12.1891
▁embrac	-12.1934
rthern	-12.1935
▁stumbl	-12.2027
coffe	-12.2041
althcare	-12.237
gressive	-12.2378
grain	-12.2729
Jane	-12.2752
Race	-12.2869
expect	-12.3007
glorious	-12.3021
righteous	-12.3021
Follow	-12.3022
Thought	-12.3022
feature	-12.3022
sarcasm	-12.3022
breezy	-12.3023
fascist	-12.3023
Russia	-12.3023
hilarity	-12.3023
religious	-12.3023
favor	-12.3024
written	-12.3024
interview	-12.3024
ignorant	-12.3024
photo	-12.3025
experience	-12.3025
wonderful	-12.3025
Because	-12.3025
against	-12.3025
“	-12.3025
uzzl	-12.312
uggestions	-12.3127
nterested	-12.3142
ositive	-12.3148
999999999999999	-12.3152
▁Photo	-12.3153
543456	-12.3153
asketball	-12.3154
▁masculin	-12.3154
VERY	-12.3155
elebrity	-12.3155
rassroots	-12.3157
BigBrother	-12.3158
▁enslave	-12.3158
▁misrepresent	-12.3158
Express	-12.3158
▁energetic	-12.3158
▁infiltrat	-12.3158
▁soundtrack	-12.3158
BarmyArmy	-12.3158
BlairWitch	-12.3158
Matthew	-12.3158
Religion	-12.3158
TheNiceBot	-12.3158
Violence	-12.3158
aflcatsswans	-12.3158
bbfinale	-12.3158
bbmichelle	-12.3158
blairwitch	-12.3158
cemetery	-12.3158
clumsy	-12.3158
debatequestions	-12.3158
disheartening	-12.3158
extremeworld	-12.3158
handicapped	-12.3158
hathappened	-12.3158
inadvertently	-12.3158
jaculat	-12.3158
lackadaisical	-12.3158
ladygaga	-12.3158
nawazsharif	-12.3158
nononono	-12.3158
oreillyfactor	-12.3158
osaurus	-12.3158
rollercoaster	-12.3158
umbrella	-12.3158
▁AMAZING	-12.3158
▁Anniversary	-12.3158
▁Argentina	-12.3158
▁Blizzard	-12.3158
▁Britain	-12.3158
▁Build	-12.3158
▁COMING	-12.3158
▁Catholicism	-12.3158
▁Certain	-12.3158
▁Channel	-12.3158
▁Character	-12.3158
▁Chengdu	-12.3158
▁College	-12.3158
▁Community	-12.3158
▁Dancheng	-12.3158
▁Defense	-12.3158
▁Desperate	-12.3158
▁ENTIRE	-12.3158
▁EXACTLY	-12.3158
▁Edmonton	-12.3158
▁FRIEND	-12.3158
▁FWIW	-12.3158
▁Greece	-12.3158
▁Guangdong	-12.3158
▁HAGAR	-12.3158
▁INSIDE	-12.3158
▁Knockout	-12.3158
▁LGBT	-12.3158
▁Lmfao	-12.3158
▁Lucasfilm	-12.3158
▁NOTHING	-12.3158
▁Nashville	-12.3158
▁Nonsense	-12.3158
▁Oblivion	-12.3158
▁Oklahoma	-12.3158
▁Omicron	-12.3158
▁Oxford	-12.3158
▁POWER	-12.3158
▁Parliament	-12.3158
▁Revolution	-12.3158
▁Similar	-12.3158
▁Simpsons	-12.3158
▁Spoiler	-12.3158
▁Teacher	-12.3158
▁Tumblr	-12.3158
▁Vietnam	-12.3158
▁WATCH	-12.3158
▁WRONG	-12.3158
▁Zhoukou	-12.3158
▁accompany	-12.3158
▁altogether	-12.3158
▁applicants	-12.3158
▁authentic	-12.3158
▁barbecue	-12.3158
▁beneficial	-12.3158
▁buoyant	-12.3158
▁category	-12.3158
▁celebrating	-12.3158
▁centuries	-12.3158
▁collapsing	-12.3158
▁contagious	-12.3158
▁corpse	-12.3158
▁default	-12.3158
▁dejected	-12.3158
▁dynasty	-12.3158
▁elevator	-12.3158
▁emphasi	-12.3158
▁employed	-12.3158
▁english	-12.3158
▁equipment	-12.3158
▁errands	-12.3158
▁explicit	-12.3158
▁fantasize	-12.3158
▁fracture	-12.3158
▁furthest	-12.3158
▁goosebumps	-12.3158
▁gymnastics	-12.3158
▁ibuprofen	-12.3158
▁illiterate	-12.3158
▁impulse	-12.3158
▁inconsistent	-12.3158
▁inequality	-12.3158
▁intriguing	-12.3158
▁irrational	-12.3158
▁japanese	-12.3158
▁lawsuit	-12.3158
▁liquor	-12.3158
▁ludicrous	-12.3158
▁magnificent	-12.3158
▁miscarriage	-12.3158
▁monogamous	-12.3158
▁montmorillonite	-12.3158
▁mortgage	-12.3158
▁necessity	-12.3158
▁nicotine	-12.3158
😉	-12.5523
🦀	-12.5658
😤	-13.3809
♀	-14.3991
